memory_initialization_radix=16;
memory_initialization_vector=
f8,
fd,
fb,
04,
06,
09,
09,
06,
f5,
f5,
09,
04,
09,
07,
fc,
03,
f6,
09,
06,
f9,
f7,
07,
f8,
08,
06,
fe,
f8,
f6,
01,
03,
ff,
01,
00,
06,
fe,
f3,
06,
03,
f0,
eb,
ff,
f3,
f6,
06,
f8,
f7,
03,
08,
06,
ff,
f7,
09,
0a,
fc,
04,
04,
00,
02,
f7,
fd,
fe,
f4,
f9,
01,
f1,
f6,
ff,
e6,
e2,
ef,
e9,
f2,
ff,
f0,
fd,
ff,
02,
fb,
f7,
f2,
fc,
07,
01,
fe,
09,
fe,
f7,
ea,
e7,
00,
fe,
fc,
07,
0f,
10,
19,
1b,
22,
16,
18,
11,
0b,
f0,
08,
fa,
e3,
f5,
fa,
00,
0f,
17,
06,
f8,
09,
04,
0a,
0b,
01,
06,
1f,
0a,
23,
26,
2f,
24,
18,
0e,
13,
03,
18,
17,
05,
fc,
fb,
04,
f5,
03,
1c,
18,
f9,
08,
00,
09,
0d,
0d,
2d,
1e,
0e,
1c,
15,
1a,
1e,
1a,
23,
13,
10,
fa,
f9,
04,
f9,
fa,
f6,
f8,
00,
07,
22,
0e,
ef,
fd,
0a,
0a,
28,
18,
17,
17,
0c,
0c,
02,
0e,
fe,
10,
08,
13,
0a,
0d,
0b,
00,
f8,
fe,
03,
f6,
f2,
08,
18,
14,
09,
02,
07,
f2,
1b,
0d,
06,
ff,
01,
f2,
ed,
07,
0a,
00,
12,
0c,
08,
19,
0d,
18,
0f,
0e,
09,
08,
f6,
fd,
0f,
fd,
13,
f9,
12,
ea,
05,
f8,
e4,
f9,
df,
f6,
fc,
ec,
f0,
0b,
1b,
1f,
22,
1f,
1c,
18,
ff,
15,
fb,
03,
fd,
09,
09,
15,
16,
0d,
12,
fe,
fd,
08,
f2,
ee,
fc,
f6,
f5,
01,
fb,
03,
1f,
29,
1a,
14,
ff,
05,
07,
02,
06,
08,
fd,
10,
1a,
02,
10,
0a,
0e,
0e,
13,
09,
02,
05,
08,
0e,
f4,
f9,
04,
12,
1c,
1d,
fb,
fd,
05,
06,
ee,
09,
01,
0e,
fc,
1b,
1e,
26,
0d,
0a,
0e,
0e,
13,
02,
05,
04,
09,
02,
05,
0f,
22,
14,
18,
04,
f4,
e1,
fa,
08,
03,
fb,
05,
0e,
14,
19,
14,
15,
0f,
08,
1a,
15,
10,
13,
1e,
11,
1e,
09,
13,
24,
1d,
0c,
02,
e9,
e6,
e6,
f7,
f1,
fa,
fb,
02,
01,
0d,
f5,
02,
07,
05,
fd,
0b,
0f,
18,
13,
21,
11,
10,
16,
10,
1a,
0e,
05,
e2,
e5,
d9,
d1,
ec,
e4,
fd,
05,
0e,
06,
fe,
fb,
ec,
09,
ec,
0a,
06,
0b,
11,
11,
1b,
0f,
09,
10,
0b,
03,
f0,
eb,
f0,
f9,
e1,
d8,
d7,
e9,
f4,
09,
15,
0d,
21,
0a,
da,
18,
f7,
0a,
0a,
06,
f4,
1a,
11,
04,
fe,
e5,
f1,
f8,
e3,
e8,
ed,
e8,
dc,
ec,
e3,
ef,
fe,
0b,
0c,
0c,
20,
14,
e6,
0e,
fb,
14,
01,
0c,
12,
15,
0e,
ed,
de,
ce,
c7,
d3,
dd,
de,
ce,
d9,
d7,
da,
f5,
f7,
03,
01,
13,
0d,
08,
0b,
ea,
f5,
f5,
fc,
00,
fc,
1b,
06,
f3,
e0,
ce,
bb,
b9,
c0,
c7,
c3,
ad,
bd,
db,
ef,
01,
10,
08,
0c,
01,
16,
0f,
03,
f1,
01,
f2,
10,
00,
09,
1a,
fd,
f8,
ea,
d6,
c6,
c4,
cc,
c5,
b8,
c3,
e4,
f2,
09,
0b,
14,
03,
ff,
12,
15,
0a,
f9,
ff,
e9,
f8,
01,
14,
03,
12,
03,
fa,
e9,
eb,
f8,
ea,
da,
e4,
eb,
f0,
12,
12,
13,
0b,
03,
02,
0d,
12,
0e,
09,
05,
f3,
f6,
fd,
06,
0e,
fa,
1f,
13,
04,
0c,
f1,
fe,
00,
01,
10,
1e,
20,
30,
1f,
17,
0c,
02,
0f,
fe,
ff,
0b,
08,
fa,
f5,
f6,
05,
fb,
00,
fa,
0f,
0c,
06,
02,
01,
0f,
0d,
16,
1e,
31,
2b,
30,
1d,
07,
05,
07,
fa,
0f,
fe,
01,
fb,
04,
fb,
03,
03,
f6,
fc,
04,
0d,
14,
09,
ff,
12,
12,
24,
24,
1b,
30,
27,
17,
0d,
0d,
12,
08,
03,
fe,
f9,
f6,
fe,
e7,
eb,
0c,
0b,
f9,
fc,
13,
06,
0e,
13,
1a,
0e,
15,
1e,
33,
2c,
24,
23,
0e,
15,
00,
10,
fc,
f4,
f9,
f1,
e1,
ef,
e3,
e2,
0c,
09,
08,
fe,
0f,
0d,
24,
28,
1e,
19,
1b,
08,
0a,
16,
17,
1b,
08,
04,
06,
0a,
fd,
f2,
e9,
fd,
f8,
fb,
fd,
eb,
05,
fe,
0a,
01,
10,
11,
20,
1a,
06,
23,
17,
1f,
17,
15,
14,
0d,
fd,
f5,
f8,
02,
13,
0c,
09,
0f,
13,
0e,
07,
f8,
08,
06,
fe,
fa,
f5,
fc,
09,
fc,
f9,
09,
12,
13,
1f,
2b,
31,
2a,
1a,
22,
2a,
2b,
2d,
3b,
28,
27,
26,
00,
03,
02,
fc,
f6,
02,
f6,
02,
fe,
02,
09,
01,
09,
01,
fc,
0d,
17,
12,
1d,
21,
0a,
09,
20,
10,
05,
0f,
fe,
02,
f6,
fa,
0a,
fe,
f8,
00,
04,
fd,
f7,
05,
04,
fa,
0b,
01,
0a,
f6,
f6,
00,
f6,
0b,
03,
fe,
04,
01,
03,
03,
ff,
fd,
08,
09,
08,
f9,
f7,
09,
fe,
ff,
00,
08,
02,
03,
fe,
f3,
04,
f1,
f6,
e2,
e1,
fe,
0c,
14,
09,
ea,
e8,
e3,
f9,
f8,
f2,
03,
fc,
f6,
08,
01,
fa,
05,
f9,
fe,
f8,
fc,
ed,
fc,
fb,
ee,
f2,
f2,
ea,
ee,
00,
ed,
fd,
fe,
e8,
ef,
ec,
f5,
f3,
11,
0a,
fa,
f8,
f8,
02,
07,
0a,
fc,
f4,
ef,
fc,
ed,
e2,
cd,
da,
e9,
e7,
e3,
eb,
ea,
de,
de,
e5,
d9,
e6,
ef,
00,
f4,
fe,
ed,
03,
fe,
07,
17,
0c,
fa,
02,
ee,
e3,
f1,
e8,
dd,
e8,
f0,
fa,
f4,
ef,
f6,
ee,
e8,
fd,
fa,
f1,
e7,
e8,
e5,
f6,
11,
01,
fe,
f6,
11,
08,
0d,
0c,
f4,
f3,
e4,
de,
eb,
ed,
eb,
01,
01,
01,
02,
f2,
fa,
fc,
00,
f7,
f0,
e3,
fb,
08,
fd,
fa,
f9,
07,
01,
14,
04,
fc,
09,
0a,
03,
02,
fe,
f5,
09,
fe,
00,
11,
09,
0c,
ff,
02,
f1,
f1,
ee,
f5,
fc,
06,
f8,
f9,
fe,
fe,
12,
28,
25,
0c,
20,
0e,
14,
0b,
05,
10,
04,
18,
13,
0c,
10,
01,
00,
07,
04,
f8,
01,
fc,
f2,
02,
f4,
02,
fc,
16,
03,
2e,
35,
25,
2b,
1f,
1e,
10,
1e,
17,
2a,
1e,
15,
0a,
fe,
05,
10,
05,
f6,
f9,
f7,
f0,
ef,
ed,
07,
0b,
17,
1c,
03,
28,
26,
25,
2b,
1c,
26,
29,
1f,
25,
22,
2b,
1e,
18,
0d,
06,
04,
ff,
07,
02,
06,
09,
eb,
0a,
15,
08,
1b,
0f,
01,
17,
20,
2f,
21,
2b,
18,
26,
16,
19,
02,
02,
09,
0a,
10,
07,
09,
03,
f9,
06,
04,
04,
f4,
ee,
0d,
00,
18,
fe,
09,
10,
15,
20,
16,
20,
ff,
03,
09,
fe,
ec,
ee,
02,
02,
fd,
0a,
15,
13,
01,
08,
ff,
f4,
00,
0c,
00,
0b,
09,
0d,
0f,
fd,
04,
05,
01,
f6,
e7,
e3,
d6,
ce,
ce,
ec,
16,
0b,
09,
0d,
17,
0e,
03,
fa,
f6,
fe,
07,
10,
14,
1b,
04,
03,
09,
0b,
f0,
ce,
d1,
d2,
d1,
d7,
c9,
ca,
d5,
ec,
09,
07,
12,
1e,
08,
fa,
fb,
eb,
04,
fc,
03,
1c,
2a,
17,
f4,
fc,
0d,
f8,
e3,
d1,
cf,
cf,
bb,
d3,
da,
ec,
f7,
02,
0e,
10,
12,
0f,
01,
f4,
e4,
fc,
f6,
ff,
f6,
10,
23,
0f,
fb,
f5,
06,
ff,
d3,
be,
cc,
bc,
d7,
ef,
e9,
f7,
01,
1e,
1e,
18,
0d,
07,
fa,
ed,
fd,
ef,
f4,
ed,
05,
03,
11,
12,
fe,
fd,
0b,
08,
d4,
c5,
b6,
d5,
ea,
fe,
08,
12,
17,
1a,
1c,
16,
0b,
08,
f3,
f5,
fc,
fc,
f9,
00,
f7,
0b,
26,
1e,
07,
fb,
fe,
fe,
e9,
b7,
be,
da,
f0,
09,
0d,
1d,
24,
23,
12,
08,
f7,
ea,
ea,
ea,
f3,
f4,
03,
f7,
01,
08,
25,
0b,
06,
03,
f4,
02,
dc,
d0,
dc,
ea,
0c,
0e,
12,
11,
04,
17,
0b,
fd,
e4,
ee,
fa,
f9,
f4,
f0,
f6,
ec,
f7,
02,
13,
fd,
f8,
06,
fb,
00,
ed,
d1,
e3,
07,
11,
16,
0a,
fd,
00,
09,
02,
f8,
f8,
fb,
fc,
ea,
ec,
f1,
fb,
04,
f1,
0c,
14,
f8,
03,
ff,
0a,
f7,
f8,
e8,
08,
08,
10,
11,
14,
f6,
f4,
02,
e8,
f8,
fb,
ea,
f4,
f1,
f0,
f6,
f8,
09,
0f,
0e,
09,
01,
07,
f9,
04,
07,
fd,
f7,
02,
02,
10,
01,
ff,
f4,
f6,
f5,
e9,
f8,
ed,
e9,
f4,
f6,
ef,
02,
08,
fa,
ee,
01,
e8,
04,
fa,
05,
fd,
f9,
07,
13,
1c,
10,
02,
04,
f9,
f6,
00,
07,
02,
fb,
f1,
f8,
ff,
03,
05,
fe,
05,
03,
01,
f2,
ef,
fb,
ff,
01,
fa,
e0,
07,
03,
21,
22,
10,
04,
f9,
fb,
05,
03,
fb,
01,
09,
fe,
02,
07,
04,
0e,
13,
09,
f5,
f7,
e8,
f8,
02,
00,
03,
e6,
01,
08,
0f,
fe,
04,
00,
f4,
fb,
03,
f9,
fa,
0c,
f8,
fd,
0f,
08,
00,
ef,
f1,
f3,
fa,
02,
08,
01,
07,
ff,
f3,
f4,
03,
09,
fd,
07,
0c,
0d,
f7,
fa,
08,
07,
09,
01,
17,
13,
07,
03,
00,
ec,
e5,
e2,
e7,
0b,
04,
01,
fd,
03,
08,
02,
e2,
02,
fb,
12,
23,
16,
09,
05,
ff,
0a,
0e,
0d,
0f,
10,
1c,
1e,
09,
fc,
f4,
fa,
f1,
0c,
06,
f5,
09,
06,
07,
00,
1c,
10,
fd,
07,
07,
12,
1a,
fc,
10,
11,
1b,
0a,
1a,
1e,
30,
2a,
10,
fe,
f4,
f9,
f5,
f9,
ff,
01,
fe,
07,
fe,
f7,
01,
fc,
ff,
08,
f9,
09,
f9,
08,
fd,
fa,
fe,
fc,
02,
f9,
02,
06,
f6,
fa,
f7,
f7,
03,
06,
0b,
05,
f7,
ff,
fb,
f5,
04,
0e,
09,
16,
04,
fd,
ff,
fb,
08,
02,
07,
14,
21,
0d,
f4,
0c,
02,
11,
16,
12,
03,
0a,
fa,
f6,
08,
00,
fa,
00,
fa,
03,
04,
14,
12,
2c,
22,
2c,
27,
21,
1f,
21,
26,
2a,
21,
08,
16,
05,
03,
0a,
0e,
14,
09,
07,
f9,
05,
15,
19,
0c,
0f,
1d,
11,
19,
23,
22,
17,
1b,
19,
1b,
17,
27,
25,
1c,
28,
18,
0f,
fa,
f2,
15,
20,
09,
f6,
07,
10,
08,
15,
11,
0d,
19,
fa,
01,
fe,
03,
fa,
ed,
f1,
f7,
04,
08,
0f,
0c,
0a,
fe,
f9,
f9,
f1,
02,
07,
f8,
0e,
04,
0a,
0e,
1d,
03,
18,
12,
06,
fb,
02,
03,
02,
ef,
f0,
fd,
f4,
03,
04,
03,
f3,
04,
f5,
0b,
13,
12,
e9,
04,
f7,
f5,
09,
1b,
20,
1b,
14,
07,
09,
0c,
20,
15,
07,
09,
f4,
f8,
03,
08,
13,
10,
02,
0b,
fe,
10,
00,
ff,
f1,
11,
ff,
f9,
12,
16,
2a,
30,
17,
11,
14,
14,
22,
15,
14,
11,
00,
0a,
09,
0c,
1a,
0b,
18,
08,
00,
0d,
e8,
df,
ed,
17,
0b,
fe,
1c,
33,
2d,
24,
10,
fe,
11,
29,
1f,
21,
22,
09,
fd,
fd,
fb,
0d,
17,
0d,
11,
ff,
f3,
fc,
e4,
ce,
f0,
07,
f1,
01,
11,
2b,
15,
11,
06,
0b,
0f,
1e,
1a,
fb,
f6,
da,
b4,
db,
0c,
1a,
20,
17,
03,
06,
fc,
05,
f0,
db,
e2,
ed,
07,
0c,
12,
16,
21,
fe,
f6,
02,
f2,
f9,
ea,
c6,
a5,
93,
98,
cb,
0e,
22,
0a,
fa,
fe,
fc,
f7,
fa,
ed,
ee,
06,
f9,
0f,
03,
08,
1a,
12,
de,
e2,
d2,
c9,
af,
9a,
8c,
8d,
84,
a3,
e7,
09,
1d,
0a,
03,
fb,
f1,
de,
ec,
ed,
e1,
03,
e6,
02,
01,
fd,
11,
f1,
cc,
ab,
9c,
9a,
83,
82,
97,
b8,
c8,
ce,
fd,
04,
10,
f6,
fa,
e6,
f3,
d5,
e5,
df,
e5,
05,
07,
fd,
05,
fd,
0c,
e7,
c4,
ac,
ab,
8e,
a0,
bf,
e8,
f1,
fc,
02,
0e,
0d,
09,
09,
ff,
f0,
ef,
fc,
e2,
f9,
15,
22,
1d,
0a,
ff,
14,
0a,
f0,
de,
c3,
ca,
d1,
e6,
ff,
0b,
1f,
21,
11,
13,
06,
10,
12,
0d,
0f,
07,
0b,
0a,
05,
26,
17,
27,
09,
fc,
0f,
0c,
fa,
e7,
fc,
00,
0a,
f7,
16,
1b,
1d,
1a,
24,
1b,
1b,
fc,
0a,
0b,
0c,
0f,
15,
14,
15,
2d,
22,
2d,
23,
09,
10,
20,
14,
14,
15,
1e,
11,
15,
12,
1d,
25,
20,
25,
1f,
05,
05,
05,
0e,
12,
17,
0c,
17,
10,
2c,
27,
3f,
28,
f6,
03,
1d,
21,
2c,
22,
1e,
0e,
14,
01,
08,
15,
09,
12,
11,
04,
f9,
07,
0f,
08,
0e,
06,
0b,
12,
18,
30,
35,
12,
fa,
03,
17,
2e,
27,
18,
16,
09,
09,
fb,
04,
fc,
12,
22,
01,
fd,
0a,
0c,
0b,
14,
05,
01,
05,
f9,
14,
3d,
39,
08,
00,
02,
03,
2d,
1b,
1e,
15,
09,
07,
07,
fc,
18,
0e,
19,
14,
02,
08,
14,
fb,
04,
f8,
00,
fc,
f6,
0d,
28,
22,
0b,
f6,
f3,
06,
38,
16,
08,
1b,
0b,
13,
16,
fc,
0e,
09,
10,
08,
08,
08,
02,
f2,
f3,
fa,
fa,
e5,
e1,
03,
12,
10,
eb,
0c,
0a,
22,
32,
12,
15,
11,
04,
0a,
fa,
07,
fc,
05,
fd,
0c,
fa,
00,
eb,
08,
06,
f7,
f4,
e8,
e5,
00,
20,
19,
03,
0d,
16,
21,
29,
20,
17,
07,
00,
fc,
ed,
f3,
f1,
e8,
fb,
ee,
ee,
f3,
f0,
fe,
02,
fb,
f2,
f3,
ef,
f2,
0b,
18,
fd,
06,
fd,
1a,
16,
2d,
32,
1e,
13,
fb,
f4,
f6,
f8,
ed,
f9,
f2,
f3,
f6,
e9,
f6,
fb,
e3,
df,
db,
ee,
e8,
07,
1f,
06,
ff,
fa,
12,
2b,
20,
2b,
25,
12,
0b,
ff,
fc,
07,
12,
08,
03,
ff,
f8,
f3,
db,
c8,
dd,
da,
de,
e9,
07,
0d,
03,
fc,
fb,
fd,
fe,
1a,
1b,
17,
13,
19,
27,
2b,
27,
29,
29,
1b,
10,
00,
f6,
ea,
dc,
d1,
d3,
d8,
e6,
e4,
f9,
f8,
12,
f5,
07,
fd,
fe,
02,
00,
f5,
ea,
fd,
fd,
fd,
0e,
0a,
f0,
f4,
f2,
00,
f4,
06,
f6,
e2,
ee,
f8,
f1,
f4,
fc,
0b,
f8,
f9,
00,
f5,
03,
f8,
08,
0e,
13,
0c,
0b,
09,
18,
11,
15,
07,
09,
0b,
1c,
0a,
07,
f3,
04,
f6,
f7,
03,
f5,
06,
03,
f6,
fd,
04,
f5,
fa,
09,
00,
f5,
ff,
00,
06,
0a,
0b,
f9,
fa,
fe,
09,
fd,
06,
fe,
03,
fb,
0b,
03,
f6,
0a,
08,
04,
08,
0b,
f8,
f5,
07,
ff,
f6,
ff,
fc,
f9,
fa,
fa,
05,
f8,
07,
fd,
f6,
09,
fd,
05,
02,
fd,
02,
02,
01,
02,
f5,
0a,
fa,
0a,
f9,
f6,
0b,
f6,
fd,
f6,
fd,
fd,
fc,
04,
03,
05,
f7,
f5,
06,
02,
ff,
fe,
04,
01,
fe,
0b,
f9,
fc,
08,
05,
0a,
f8,
0a,
03,
05,
05,
f6,
01,
08,
ff,
06,
09,
04,
07,
05,
fb,
f8,
fc,
f6,
02,
0a,
f7,
01,
04,
f7,
00,
ff,
f6,
0a,
fb,
fe,
05,
fa,
f5,
07,
04,
03,
f6,
fb,
00,
08,
07,
01,
09,
fc,
00,
02,
f7,
f6,
fa,
0b,
f8,
01,
f8,
f5,
fa,
f7,
f6,
fe,
fc,
ff,
08,
f4,
f4,
f7,
f8,
00,
09,
ff,
02,
fc,
05,
fa,
fc,
04,
f6,
f7,
06,
ff,
f4,
03,
f7,
02,
f9,
01,
02,
f6,
fe,
fc,
f4,
f3,
ff,
01,
f3,
fb,
f5,
f9,
f6,
00,
ff,
fc,
05,
05,
01,
09,
07,
f5,
06,
ff,
05,
02,
f9,
08,
00,
02,
01,
f6,
03,
f9,
f4,
01,
08,
fb,
f9,
f9,
08,
fa,
f8,
02,
f5,
09,
02,
02,
fa,
f5,
f9,
06,
f7,
01,
06,
03,
00,
01,
fa,
01,
08,
03,
f4,
00,
09,
04,
00,
fc,
00,
00,
f8,
fa,
07,
f9,
05,
f3,
fe,
fb,
fc,
ff,
01,
fd,
f8,
04,
00,
ff,
00,
fc,
07,
fb,
02,
fe,
06,
00,
f5,
fa,
fb,
07,
03,
ff,
fe,
f6,
fd,
00,
07,
00,
f9,
02,
f9,
07,
07,
00,
ff,
06,
07,
ff,
03,
f6,
fa,
fe,
06,
f8,
03,
f9,
f6,
f3,
08,
04,
f9,
05,
06,
f3,
f5,
f7,
ff,
00,
02,
01,
0a,
f9,
f5,
07,
fd,
f3,
01,
07,
fb,
fa,
02,
f3,
f3,
fe,
f4,
f6,
01,
ff,
fc,
07,
f5,
ff,
04,
02,
09,
fb,
f9,
0b,
0a,
03,
f8,
0b,
fb,
fe,
04,
f4,
f8,
fb,
ff,
f3,
f5,
03,
00,
f9,
f6,
f4,
f5,
05,
f6,
fd,
01,
ff,
07,
f8,
fa,
02,
06,
03,
fc,
09,
07,
f8,
fd,
04,
f8,
fa,
f9,
fb,
f9,
f5,
06,
fe,
f4,
02,
f3,
05,
f7,
04,
f8,
fc,
f4,
0a,
ff,
fd,
f7,
09,
01,
f6,
f8,
fc,
06,
fd,
fd,
00,
fc,
ff,
ff,
01,
03,
01,
f7,
f6,
05,
01,
fb,
04,
f3,
f5,
06,
fb,
fc,
f8,
08,
fa,
f8,
f5,
fa,
07,
fa,
fc,
03,
fc,
09,
04,
f4,
03,
fe,
f8,
00,
f9,
05,
fe,
fe,
06,
fc,
02,
00,
02,
00,
f3,
fe,
ff,
f5,
09,
04,
0a,
03,
06,
f4,
fd,
00,
fa,
f6,
fd,
ff,
fb,
fd,
f5,
fa,
05,
ff,
09,
09,
f9,
f5,
02,
fe,
09,
01,
05,
05,
f6,
fa,
fa,
f7,
fe,
07,
f7,
ff,
f5,
01,
05,
fb,
03,
04,
08,
fb,
08,
07,
fb,
fa,
00,
08,
04,
fa,
01,
0a,
f6,
05,
00,
f6,
06,
08,
03,
f4,
f3,
04,
fc,
f7,
ff,
f8,
02,
f4,
06,
f3,
fa,
f4,
06,
fb,
fc,
08,
f8,
f5,
03,
fd,
0b,
01,
09,
02,
0b,
f7,
f7,
00,
f9,
08,
f9,
f4,
f4,
01,
fd,
f8,
f9,
ff,
fd,
fc,
f4,
fa,
05,
fc,
06,
07,
01,
f6,
f7,
00,
fd,
f6,
fd,
05,
05,
fd,
09,
f8,
02,
ff,
f6,
f5,
06,
02,
f4,
f4,
02,
01,
f7,
f9,
f5,
fa,
03,
04,
f8,
f7,
fd,
0a,
fe,
00,
fc,
0a,
fd,
f5,
fa,
fc,
ff,
09,
03,
01,
02,
f3,
f8,
f4,
fc,
04,
04,
fe,
f3,
02,
f7,
07,
09,
f9,
01,
09,
fe,
03,
f8,
01,
fa,
fc,
01,
03,
f6,
f8,
f8,
04,
03,
00,
f6,
09,
01,
09,
f9,
02,
ff,
f5,
05,
fc,
f6,
01,
04,
fc,
f6,
04,
0a,
fd,
00,
06,
0b,
fe,
fb,
09,
02,
f5,
05,
05,
06,
f8,
fc,
f4,
00,
04,
fc,
08,
01,
01,
08,
0a,
fd,
01,
fa,
01,
03,
04,
fc,
f7,
f5,
f6,
fa,
fb,
f7,
ff,
fd,
fe,
01,
01,
f3,
00,
05,
f5,
09,
fa,
04,
f6,
fc,
f6,
02,
f9,
08,
04,
00,
fe,
01,
f8,
fd,
03,
00,
02,
f5,
01,
04,
05,
05,
00,
f9,
01,
fa,
f6,
08,
01,
0a,
f8,
ff,
03,
ff,
fb,
0a,
07,
f5,
fa,
00,
09,
0a,
02,
07,
01,
01,
04,
fe,
f2,
f5,
07,
01,
06,
06,
f9,
00,
f8,
fd,
09,
07,
f8,
f6,
fc,
ff,
06,
f8,
06,
04,
0a,
05,
01,
0a,
03,
0b,
00,
01,
ff,
01,
f7,
fd,
02,
00,
fc,
f5,
04,
f5,
ff,
fb,
0b,
01,
0a,
f7,
f6,
fe,
f9,
04,
09,
fa,
fd,
0b,
fc,
05,
00,
fd,
08,
f9,
07,
fc,
01,
f5,
f5,
07,
00,
fb,
09,
03,
02,
fd,
04,
02,
00,
fa,
03,
02,
10,
00,
01,
11,
12,
23,
10,
1d,
20,
0f,
1e,
16,
17,
16,
00,
04,
09,
07,
07,
f6,
01,
f7,
09,
03,
fb,
12,
ee,
0b,
fe,
0b,
10,
24,
24,
30,
27,
1e,
27,
28,
1f,
21,
38,
22,
18,
0f,
0c,
14,
0a,
12,
05,
0b,
01,
07,
0c,
16,
02,
17,
12,
1f,
18,
27,
2d,
11,
1c,
28,
0b,
0a,
05,
06,
1e,
2c,
27,
16,
14,
03,
0c,
01,
02,
04,
fd,
f3,
13,
00,
03,
0c,
09,
fb,
f8,
12,
23,
12,
08,
05,
fc,
08,
14,
13,
0f,
0b,
0e,
0d,
1f,
1f,
19,
17,
11,
08,
06,
03,
0b,
16,
0b,
04,
f7,
f2,
f6,
11,
14,
00,
ec,
f2,
fa,
f7,
fd,
07,
03,
0a,
01,
16,
1b,
1c,
24,
32,
21,
f6,
02,
13,
12,
06,
0f,
16,
06,
03,
0c,
0d,
14,
0f,
fe,
06,
0e,
05,
04,
0c,
19,
16,
1e,
21,
22,
26,
36,
30,
25,
01,
03,
14,
1a,
1f,
0a,
0b,
fd,
13,
13,
1c,
10,
15,
1b,
0e,
18,
1d,
0b,
16,
24,
24,
21,
16,
23,
1a,
0d,
24,
0c,
06,
0c,
0f,
25,
1d,
08,
11,
00,
16,
12,
0e,
28,
2e,
2c,
30,
38,
25,
21,
22,
1b,
1c,
1d,
16,
10,
0b,
05,
0d,
16,
13,
06,
0d,
2e,
13,
26,
13,
07,
23,
11,
1a,
15,
1c,
34,
37,
2e,
21,
03,
f0,
fd,
f8,
ec,
eb,
fa,
f9,
f9,
0e,
11,
1a,
00,
0f,
2a,
26,
16,
17,
0d,
0e,
14,
08,
1a,
17,
00,
15,
13,
e2,
e7,
e0,
d4,
cb,
dc,
c6,
cb,
c6,
eb,
14,
1b,
0f,
fd,
08,
20,
01,
11,
02,
fa,
f4,
f3,
ee,
ea,
eb,
df,
d6,
cf,
d2,
ce,
cf,
d9,
db,
c8,
bd,
b4,
ae,
b7,
f5,
08,
0f,
12,
11,
11,
fd,
fd,
f2,
eb,
dd,
e7,
e4,
d8,
ce,
af,
b0,
cd,
c9,
dd,
e8,
f9,
e4,
cd,
b7,
ad,
a8,
a1,
db,
01,
07,
12,
00,
08,
f8,
d7,
cb,
d7,
d6,
d0,
d4,
ce,
ba,
c2,
db,
fa,
e6,
da,
f3,
fe,
ea,
d0,
da,
cb,
bd,
bf,
de,
fd,
04,
0c,
f9,
0c,
f7,
d7,
c4,
ca,
cf,
e3,
ee,
e3,
ce,
cf,
ec,
05,
f9,
ed,
fa,
02,
f0,
fa,
ee,
e3,
ca,
e5,
fd,
16,
19,
10,
fd,
03,
ed,
d3,
d3,
df,
c9,
e8,
f4,
ec,
dc,
ea,
12,
14,
05,
ff,
f8,
fb,
f6,
ec,
f5,
e1,
d8,
f0,
03,
03,
11,
03,
07,
0a,
03,
df,
cf,
d4,
c3,
d8,
f3,
f5,
fc,
f1,
24,
22,
01,
eb,
f2,
f2,
f7,
00,
fb,
f6,
f5,
10,
1a,
02,
1b,
ff,
fc,
07,
14,
ea,
de,
d6,
d9,
d8,
da,
e3,
dd,
f5,
13,
11,
f7,
f3,
fd,
02,
0a,
f6,
fa,
fa,
fb,
0a,
20,
0e,
10,
01,
f6,
10,
12,
06,
fb,
db,
dc,
e0,
da,
dc,
d9,
01,
17,
07,
0c,
07,
07,
0a,
02,
0a,
07,
f6,
0d,
1e,
2b,
1a,
11,
fa,
0f,
0c,
17,
16,
f2,
03,
f7,
08,
fb,
ec,
f8,
0b,
16,
17,
23,
1a,
11,
0c,
0d,
11,
0d,
08,
12,
21,
25,
2e,
08,
f7,
f3,
24,
2f,
26,
0f,
04,
15,
1c,
1c,
11,
14,
18,
22,
1a,
28,
25,
20,
1e,
1a,
12,
09,
17,
09,
1c,
27,
17,
02,
03,
fc,
0e,
33,
24,
14,
0f,
10,
0d,
1f,
14,
1a,
23,
27,
1e,
2b,
25,
1d,
21,
20,
17,
06,
11,
10,
16,
1c,
18,
00,
04,
05,
1e,
27,
2f,
1e,
18,
0e,
0d,
13,
1d,
09,
18,
08,
11,
1c,
1f,
16,
24,
1b,
14,
f8,
f2,
02,
19,
0e,
17,
f8,
fb,
06,
14,
0f,
26,
2d,
2a,
17,
02,
16,
0e,
11,
14,
fc,
0b,
03,
1d,
18,
16,
0a,
07,
f0,
00,
04,
fd,
0c,
22,
ff,
0a,
0a,
13,
19,
0c,
ff,
1a,
12,
0d,
17,
1a,
19,
0f,
16,
22,
15,
12,
24,
18,
09,
eb,
f8,
00,
00,
13,
0d,
14,
f7,
05,
03,
04,
21,
16,
04,
07,
22,
2d,
29,
1a,
24,
38,
29,
10,
2a,
30,
39,
2c,
20,
00,
ec,
03,
ff,
fb,
f8,
ff,
f5,
f7,
05,
00,
05,
fb,
fc,
f3,
10,
1f,
15,
17,
13,
0b,
1c,
0d,
12,
1b,
1f,
18,
1a,
fc,
fd,
fd,
07,
f6,
08,
fa,
f6,
04,
01,
02,
ff,
09,
fd,
06,
08,
11,
f9,
23,
1a,
0c,
1e,
02,
0b,
0f,
2f,
18,
13,
06,
05,
fd,
ff,
f8,
01,
05,
08,
f6,
f5,
05,
f9,
03,
05,
ff,
05,
fa,
05,
f8,
05,
07,
0d,
10,
0c,
f9,
02,
fa,
01,
fe,
01,
04,
fd,
f7,
0a,
05,
05,
0a,
f5,
07,
f7,
03,
14,
18,
15,
0c,
14,
0d,
14,
10,
12,
f3,
fc,
f9,
ff,
21,
0f,
16,
0d,
0b,
07,
f7,
f8,
05,
0a,
09,
f9,
01,
f0,
f7,
12,
15,
23,
2d,
1c,
2b,
1d,
21,
2a,
1f,
19,
18,
23,
12,
0c,
0f,
1d,
25,
1b,
05,
01,
05,
f8,
f7,
f5,
fa,
ff,
0e,
00,
0b,
fe,
0e,
19,
08,
05,
fe,
17,
0f,
08,
05,
03,
0b,
f6,
03,
15,
19,
27,
0c,
f0,
fd,
08,
05,
fe,
00,
e9,
00,
eb,
eb,
00,
ff,
0a,
fc,
06,
14,
13,
11,
0e,
0c,
18,
06,
04,
15,
0c,
10,
1d,
12,
fe,
19,
0f,
04,
f7,
f0,
e0,
ed,
d8,
ea,
e9,
f8,
ff,
ff,
ff,
01,
ef,
09,
02,
08,
00,
fb,
0e,
15,
04,
0f,
1c,
19,
1f,
22,
0f,
05,
fe,
ff,
d6,
f1,
f1,
db,
f9,
02,
f6,
e5,
f3,
fa,
e3,
d7,
d6,
da,
dd,
d5,
eb,
f3,
ee,
08,
24,
31,
33,
1c,
08,
fc,
f8,
03,
de,
e9,
ed,
ec,
f8,
07,
fa,
ee,
e9,
e2,
d8,
cc,
ca,
ca,
d0,
ea,
de,
ec,
ef,
0b,
0a,
1f,
17,
14,
07,
05,
f4,
08,
fb,
f4,
ee,
fb,
02,
fc,
0e,
0f,
01,
f7,
f3,
e1,
dc,
d9,
e1,
e2,
f9,
fa,
fd,
02,
09,
03,
0f,
17,
0b,
f9,
f6,
fc,
e9,
f1,
e6,
ed,
13,
06,
1a,
0e,
07,
f3,
d9,
d1,
d3,
f6,
f9,
fe,
f5,
f6,
09,
0b,
08,
01,
fe,
f5,
ec,
fc,
03,
f3,
eb,
fb,
f4,
fd,
09,
1c,
1d,
17,
05,
0a,
eb,
d9,
df,
ef,
f1,
fe,
0c,
fd,
06,
fd,
ff,
00,
e2,
ff,
f4,
f6,
ff,
ee,
ef,
03,
f3,
07,
0d,
15,
18,
0c,
0e,
16,
fa,
e5,
e5,
f8,
f7,
f9,
07,
fb,
f6,
03,
1b,
12,
02,
fe,
e7,
ff,
f9,
fd,
e8,
e8,
fc,
00,
07,
0b,
0f,
ff,
09,
23,
19,
fb,
f2,
f7,
f2,
ee,
f4,
0b,
0e,
0f,
1e,
20,
0f,
ee,
f0,
0a,
04,
f0,
e6,
db,
fb,
00,
fc,
fd,
07,
0a,
12,
20,
1c,
07,
17,
05,
f6,
05,
0b,
10,
14,
0d,
1c,
28,
1a,
0e,
fc,
ff,
ff,
03,
08,
db,
04,
fc,
ff,
00,
01,
07,
23,
21,
2a,
15,
18,
0c,
09,
fa,
01,
f4,
0c,
11,
0f,
0b,
28,
05,
00,
f6,
f6,
0d,
1b,
ef,
05,
fc,
01,
f9,
ef,
fc,
08,
1a,
37,
2f,
23,
10,
06,
f5,
f1,
ed,
f3,
fe,
fa,
0e,
1e,
0d,
08,
03,
ee,
fe,
02,
e7,
fc,
0e,
04,
f4,
fa,
03,
0d,
1d,
22,
2f,
27,
0b,
07,
e9,
ec,
df,
f4,
f2,
01,
06,
35,
17,
06,
09,
f7,
ee,
05,
f4,
fd,
06,
f8,
09,
01,
0b,
0a,
27,
1f,
18,
14,
04,
f1,
ed,
e4,
f8,
f6,
fc,
fb,
01,
28,
04,
04,
e5,
fe,
f7,
ea,
e2,
f3,
00,
ff,
04,
fd,
09,
1e,
25,
21,
07,
ff,
04,
ed,
e8,
ec,
e8,
f8,
fb,
f5,
0f,
1f,
07,
0a,
f5,
ea,
08,
e0,
e9,
eb,
f3,
02,
03,
0b,
17,
0f,
22,
13,
03,
02,
00,
f8,
fb,
ec,
f8,
07,
09,
0d,
03,
11,
1c,
08,
06,
02,
0b,
ec,
e2,
dd,
fa,
02,
f5,
02,
0a,
15,
1c,
03,
0e,
05,
f8,
f9,
0f,
0e,
05,
ff,
f8,
06,
0b,
f9,
fe,
f0,
f5,
f8,
ef,
ed,
e4,
db,
e4,
01,
f5,
15,
11,
0d,
18,
19,
05,
06,
06,
21,
1b,
1a,
11,
02,
0a,
01,
f8,
f6,
12,
f1,
f4,
fd,
f8,
08,
fa,
f4,
e4,
e4,
e9,
fc,
10,
12,
03,
14,
05,
0d,
01,
0b,
02,
1c,
0b,
12,
fc,
f8,
fa,
07,
01,
fa,
ff,
06,
06,
f8,
e9,
d7,
df,
c9,
eb,
e8,
ec,
f9,
08,
09,
18,
16,
12,
06,
01,
18,
19,
10,
fb,
f1,
f5,
fd,
f8,
01,
f8,
f5,
05,
e5,
e4,
da,
c2,
b9,
cf,
e3,
ea,
fe,
f8,
fb,
01,
0e,
02,
fc,
00,
00,
03,
fd,
f1,
f1,
13,
16,
12,
01,
fb,
f7,
00,
f6,
f2,
d9,
c7,
cc,
c2,
c1,
de,
e4,
d5,
e4,
ee,
fd,
e7,
e7,
e0,
e3,
e0,
e0,
d6,
f4,
fb,
00,
0d,
f9,
09,
fb,
04,
fd,
ef,
d9,
d4,
dc,
d6,
d0,
b9,
d8,
cc,
c2,
b2,
b2,
ac,
c8,
c7,
cf,
ca,
d7,
dd,
04,
04,
07,
05,
f9,
ff,
09,
fa,
f9,
f5,
06,
f5,
f9,
f8,
f3,
e9,
ec,
e5,
d9,
ce,
ee,
f9,
eb,
eb,
f5,
ff,
f4,
ee,
00,
f7,
f5,
f7,
fe,
05,
fc,
f6,
05,
0b,
f5,
08,
0b,
08,
fa,
04,
05,
11,
01,
06,
06,
f9,
fd,
03,
f7,
00,
fa,
fd,
fa,
03,
f6,
f9,
fe,
fe,
fd,
02,
f9,
02,
f2,
f4,
f1,
f9,
02,
13,
08,
08,
08,
05,
e5,
f1,
00,
0e,
0f,
1c,
0b,
f7,
f3,
03,
0b,
05,
09,
f6,
0a,
fc,
f7,
f9,
09,
00,
08,
ff,
05,
04,
1c,
20,
20,
27,
1f,
03,
05,
00,
10,
1d,
20,
17,
15,
0d,
fc,
05,
0a,
f5,
fd,
04,
ff,
00,
fd,
fd,
fc,
ec,
f7,
f9,
02,
0a,
0b,
0c,
04,
06,
11,
13,
17,
27,
35,
35,
15,
16,
ff,
03,
f6,
05,
fc,
fe,
16,
19,
f8,
f0,
ee,
e1,
da,
e5,
ed,
e7,
ee,
df,
e2,
eb,
02,
08,
09,
11,
14,
1c,
2c,
28,
fd,
00,
fb,
06,
03,
07,
f8,
ed,
fe,
e7,
f6,
f8,
fc,
fb,
f5,
f7,
e4,
ed,
ec,
ea,
ea,
f8,
fc,
f8,
fb,
12,
1e,
1b,
ff,
f6,
ff,
03,
f1,
22,
05,
f7,
fe,
eb,
fc,
f6,
07,
09,
0e,
06,
00,
01,
f7,
f9,
08,
0b,
ff,
09,
00,
fd,
fc,
18,
0a,
04,
01,
f7,
0a,
18,
09,
01,
ff,
ef,
fe,
02,
0b,
22,
27,
15,
0c,
0c,
15,
05,
11,
19,
0e,
0b,
0d,
03,
02,
13,
0f,
01,
fe,
f3,
09,
15,
06,
02,
f6,
00,
00,
0d,
16,
0f,
0e,
01,
ec,
ef,
f9,
f3,
f9,
f4,
fb,
fb,
09,
fd,
ee,
f5,
10,
ef,
f8,
15,
13,
11,
09,
fb,
e7,
ef,
fc,
05,
0b,
1a,
09,
00,
ec,
df,
e5,
e3,
f1,
f1,
eb,
f6,
f3,
ec,
db,
fa,
fa,
fc,
09,
10,
09,
02,
01,
f0,
ea,
fe,
0a,
09,
1e,
10,
0d,
ff,
df,
cc,
ec,
fb,
e7,
f3,
ec,
f6,
f8,
ed,
d8,
db,
0e,
01,
fa,
24,
0c,
19,
01,
03,
09,
0c,
1c,
18,
1b,
29,
1c,
fe,
d7,
e8,
0e,
1a,
1b,
f9,
fa,
f7,
f5,
fa,
e1,
da,
f9,
e6,
f0,
12,
08,
15,
13,
16,
15,
0e,
20,
26,
16,
18,
14,
f7,
d8,
fc,
1c,
23,
23,
02,
07,
0c,
04,
fb,
f9,
da,
e2,
f4,
fa,
01,
ff,
11,
13,
22,
18,
11,
2a,
1d,
0d,
06,
00,
e8,
e6,
f1,
24,
2d,
1f,
0d,
13,
22,
0e,
06,
ed,
ec,
ce,
d2,
eb,
f1,
02,
0f,
10,
27,
28,
26,
1f,
10,
06,
09,
f6,
e5,
d5,
f6,
08,
21,
12,
1c,
28,
19,
1c,
0f,
f8,
da,
dd,
d3,
ea,
05,
05,
ff,
07,
11,
0d,
17,
16,
24,
09,
1a,
0a,
f0,
e0,
e4,
ff,
12,
1c,
25,
1b,
26,
12,
17,
fe,
e2,
d1,
ef,
f8,
01,
fc,
f4,
ed,
f8,
11,
20,
1a,
24,
1e,
09,
0e,
eb,
e3,
e8,
fe,
02,
1b,
13,
16,
11,
18,
00,
f9,
e1,
dc,
dc,
e9,
fa,
10,
f2,
e9,
ee,
f3,
10,
17,
15,
0f,
0c,
04,
e3,
e5,
06,
00,
0f,
18,
20,
20,
08,
f8,
ed,
e3,
d7,
d8,
e2,
e6,
05,
06,
04,
f8,
ec,
f4,
f7,
f9,
02,
ed,
f5,
f0,
e2,
eb,
09,
0e,
09,
17,
18,
07,
0f,
fa,
e4,
d6,
cf,
ce,
e6,
fb,
0b,
f6,
03,
07,
f4,
f0,
e9,
ed,
e5,
ef,
e1,
e6,
e8,
f1,
03,
02,
09,
00,
f7,
08,
fb,
f7,
dd,
d2,
e2,
f1,
ec,
f7,
03,
f7,
07,
ec,
f1,
e1,
d7,
e3,
e3,
d3,
cf,
cc,
dd,
f3,
08,
fb,
ff,
fe,
01,
f6,
ec,
d9,
d0,
e6,
fd,
10,
f7,
08,
04,
fa,
fa,
e9,
e8,
e3,
e0,
d1,
db,
dd,
db,
da,
eb,
f2,
ef,
ff,
0f,
07,
fc,
e8,
e9,
e7,
e0,
f8,
0c,
0a,
ff,
f2,
00,
fa,
ef,
e4,
f8,
e5,
da,
cf,
ce,
d7,
de,
f7,
fd,
f4,
fb,
f4,
0c,
06,
f8,
e8,
eb,
ef,
ee,
09,
0e,
01,
04,
f8,
0b,
fc,
f2,
00,
09,
f4,
e8,
ee,
e5,
e8,
f7,
f0,
f0,
fb,
f7,
03,
0f,
fd,
00,
f7,
03,
f1,
f4,
0f,
02,
fd,
ff,
f6,
fc,
04,
f1,
04,
00,
16,
00,
10,
02,
02,
1b,
0d,
0b,
04,
ff,
17,
07,
17,
07,
03,
14,
03,
0f,
06,
f6,
f5,
f2,
08,
fd,
02,
01,
15,
09,
1a,
11,
04,
0d,
16,
1a,
16,
10,
18,
0d,
0f,
17,
0f,
13,
10,
13,
28,
28,
19,
05,
ff,
f0,
f7,
08,
ff,
fe,
04,
0f,
00,
17,
12,
13,
25,
16,
1f,
20,
30,
39,
2d,
2c,
35,
30,
2a,
1d,
1f,
1f,
0f,
12,
0c,
09,
04,
06,
fb,
07,
04,
0d,
0f,
1f,
14,
0f,
0c,
1f,
07,
0c,
1f,
2e,
0f,
16,
14,
20,
15,
11,
1b,
14,
0c,
01,
05,
05,
ff,
ff,
04,
02,
0a,
01,
f7,
0b,
03,
05,
ff,
fc,
f6,
07,
08,
0b,
0e,
05,
00,
f6,
ff,
04,
01,
01,
f6,
fd,
fd,
06,
fd,
00,
07,
f9,
09,
f3,
f4,
ff,
eb,
fa,
f1,
ed,
f1,
dc,
e9,
f9,
f2,
ec,
e7,
f7,
eb,
d9,
f3,
f8,
f8,
08,
03,
00,
f5,
09,
0a,
f1,
f9,
ee,
01,
fa,
e7,
dc,
e2,
e4,
e1,
d9,
e0,
e5,
f1,
f1,
f0,
e5,
d6,
e2,
e6,
e6,
e7,
ed,
fd,
f7,
f7,
0a,
fa,
10,
ea,
e1,
0c,
ed,
e3,
d4,
d9,
dc,
e1,
da,
dd,
d2,
e7,
ea,
e4,
d8,
d2,
c8,
d7,
e7,
e9,
f4,
f5,
fd,
01,
00,
10,
21,
15,
1e,
0d,
06,
ef,
ff,
f5,
02,
ff,
12,
07,
06,
01,
fa,
d9,
e1,
ed,
df,
ec,
e0,
e5,
f0,
fb,
01,
0b,
fc,
06,
06,
11,
18,
11,
11,
11,
0c,
02,
02,
18,
0a,
17,
0d,
07,
fe,
dd,
dc,
d8,
d4,
df,
f7,
f7,
fc,
0e,
fa,
ff,
ff,
ee,
f5,
32,
13,
0f,
19,
fd,
13,
08,
01,
0c,
0e,
04,
03,
0d,
11,
11,
fc,
d5,
e6,
e3,
ee,
f0,
ff,
04,
ff,
f4,
08,
f3,
08,
40,
1b,
fa,
03,
05,
ec,
f3,
f6,
ff,
02,
13,
02,
14,
12,
0b,
fe,
fa,
fc,
df,
e2,
eb,
ef,
fd,
00,
f2,
f6,
0f,
0d,
25,
2a,
05,
fb,
fe,
f8,
f8,
f7,
ee,
fa,
0e,
1c,
1b,
14,
15,
0a,
09,
f1,
e5,
df,
d9,
d5,
e8,
ff,
ff,
01,
16,
01,
20,
08,
06,
fa,
f5,
f3,
ef,
fc,
00,
02,
11,
12,
2a,
1a,
29,
2c,
15,
f3,
ef,
d5,
c3,
c3,
e5,
fc,
f8,
13,
09,
02,
20,
01,
ef,
f5,
f6,
f1,
ef,
01,
01,
f9,
07,
15,
26,
28,
25,
24,
12,
0f,
f6,
d3,
c0,
c4,
dd,
f2,
15,
1f,
06,
14,
19,
f9,
03,
ed,
02,
0f,
13,
08,
12,
0f,
fb,
15,
3d,
29,
30,
21,
26,
0e,
f0,
dd,
bf,
be,
e3,
fc,
fc,
08,
13,
25,
1c,
1d,
fa,
fa,
10,
11,
04,
0c,
f9,
01,
0a,
2d,
3e,
2d,
38,
1f,
20,
fa,
fb,
df,
e6,
df,
ef,
f6,
14,
0f,
05,
10,
19,
2c,
03,
ff,
09,
12,
fe,
fb,
ff,
ea,
fc,
26,
33,
2e,
31,
2f,
10,
f2,
f4,
ef,
e3,
e3,
09,
05,
03,
f4,
08,
18,
20,
22,
fb,
f8,
fb,
fb,
e9,
ea,
f0,
fa,
18,
26,
2e,
35,
2a,
17,
11,
e6,
df,
df,
e6,
e5,
06,
fe,
f8,
fa,
06,
07,
1a,
0f,
e0,
da,
f7,
eb,
f0,
fa,
f5,
fc,
0e,
12,
32,
2c,
32,
09,
ef,
ee,
e2,
f1,
f3,
e5,
02,
11,
fb,
0b,
03,
18,
02,
fb,
e4,
e8,
03,
00,
05,
f0,
f6,
05,
12,
27,
24,
2e,
15,
ff,
ef,
e5,
fb,
ec,
ec,
e2,
ed,
01,
f9,
03,
1b,
0d,
ed,
e3,
cf,
d0,
ef,
fa,
02,
f4,
f5,
04,
16,
1c,
16,
0c,
f2,
dd,
db,
f1,
f2,
ed,
e9,
d6,
f7,
0c,
f5,
1c,
21,
1a,
e0,
cb,
cb,
dd,
f2,
f3,
ed,
f4,
f6,
f7,
11,
0b,
f3,
ee,
de,
db,
ef,
fa,
e6,
ea,
cf,
ca,
e3,
08,
fc,
0b,
11,
1a,
ef,
d6,
c8,
e4,
f3,
e3,
dd,
e7,
d1,
d8,
02,
01,
eb,
f8,
ea,
df,
ee,
f5,
e1,
e2,
ca,
d0,
da,
08,
fd,
02,
fd,
02,
f5,
e8,
d2,
ec,
ef,
f0,
fa,
f8,
f2,
ed,
f6,
fe,
fb,
01,
f2,
e6,
f0,
e5,
f8,
e8,
dd,
fa,
f9,
fb,
09,
01,
10,
fb,
ec,
d8,
e7,
ed,
f9,
08,
04,
fa,
f1,
fb,
f1,
ec,
f7,
fa,
02,
fe,
ec,
fc,
fa,
f1,
e8,
05,
04,
f8,
07,
0a,
07,
e3,
f3,
e7,
03,
fe,
f0,
08,
fd,
fe,
07,
fb,
02,
03,
f8,
04,
00,
00,
fe,
f1,
f5,
fe,
f7,
08,
12,
ed,
09,
f7,
03,
e4,
e3,
f5,
07,
00,
13,
03,
ee,
00,
f6,
ff,
ff,
06,
0a,
fe,
f7,
0e,
09,
06,
11,
fa,
ff,
02,
09,
03,
fe,
f8,
f9,
f2,
f4,
0f,
25,
09,
0a,
fe,
ed,
f1,
03,
f2,
f0,
df,
f0,
ef,
f7,
f1,
fd,
0d,
0a,
f8,
02,
fb,
fa,
fd,
f8,
05,
03,
f7,
f9,
07,
1c,
11,
0d,
0e,
02,
02,
f7,
fe,
fa,
f4,
e5,
e9,
ed,
f9,
f9,
0e,
0f,
fa,
ef,
f2,
fc,
f2,
00,
fe,
07,
f7,
08,
01,
13,
1d,
18,
1a,
21,
14,
11,
01,
13,
1d,
0f,
15,
0e,
17,
15,
11,
12,
0c,
07,
01,
0c,
f5,
fa,
ff,
f9,
00,
fa,
f8,
04,
07,
06,
04,
05,
10,
f9,
13,
0e,
33,
17,
19,
18,
1b,
1b,
20,
0b,
0d,
11,
02,
fd,
f8,
00,
ff,
08,
f9,
07,
fe,
fe,
02,
fb,
fe,
02,
f9,
00,
f5,
fa,
00,
f2,
ff,
08,
01,
01,
fb,
06,
01,
f5,
09,
08,
f7,
03,
08,
09,
04,
fb,
f3,
fe,
ee,
fa,
f3,
03,
05,
00,
00,
02,
ff,
00,
fc,
fa,
e7,
e9,
e4,
e3,
00,
ff,
fb,
fa,
f9,
fc,
06,
09,
f3,
14,
15,
f3,
fb,
f2,
f7,
e2,
dd,
d5,
f2,
de,
dd,
c5,
d6,
ea,
e9,
ef,
ec,
01,
f3,
ea,
ec,
ed,
fe,
fa,
0a,
03,
f8,
00,
00,
f6,
fb,
f3,
08,
f7,
03,
00,
fd,
fd,
0c,
f7,
f7,
07,
0e,
19,
26,
1b,
02,
06,
05,
0d,
09,
f5,
0a,
fe,
16,
09,
04,
f3,
ec,
0e,
ff,
01,
00,
0d,
08,
ff,
fc,
0b,
07,
0d,
15,
0f,
16,
18,
1b,
12,
26,
2b,
0b,
0f,
fc,
f7,
fa,
10,
fe,
0b,
ff,
0a,
08,
11,
f4,
e9,
f4,
01,
fc,
03,
02,
09,
0a,
0f,
06,
05,
15,
1a,
18,
29,
0a,
10,
0b,
17,
06,
1b,
12,
1a,
1a,
0f,
0a,
07,
f8,
02,
f0,
ea,
e9,
e7,
f7,
05,
fa,
02,
12,
0d,
17,
11,
18,
07,
01,
fb,
0c,
03,
12,
15,
19,
11,
17,
11,
0c,
00,
fd,
0a,
f8,
f4,
f0,
e6,
f3,
01,
13,
12,
0e,
03,
1a,
31,
21,
19,
14,
00,
19,
06,
15,
24,
02,
12,
0d,
03,
01,
14,
fc,
11,
05,
0a,
06,
02,
05,
08,
15,
17,
1f,
0e,
1e,
2c,
3e,
31,
11,
08,
0b,
11,
1d,
26,
1f,
02,
fd,
04,
07,
ff,
0a,
10,
0d,
08,
10,
f8,
0e,
1b,
19,
0e,
1b,
22,
1e,
32,
43,
2f,
1d,
0e,
13,
10,
2b,
27,
09,
fc,
f8,
00,
06,
0a,
06,
05,
12,
18,
09,
01,
07,
0d,
07,
12,
14,
13,
19,
0c,
38,
23,
16,
0a,
0d,
22,
22,
28,
0a,
f3,
f6,
f4,
03,
0f,
16,
24,
20,
28,
06,
0e,
11,
12,
fb,
f8,
fd,
f7,
f5,
eb,
04,
09,
09,
f7,
1a,
13,
21,
0c,
f7,
fe,
07,
f8,
ff,
0e,
18,
22,
28,
20,
00,
f2,
ff,
f6,
fe,
f5,
ef,
ea,
e9,
ec,
f0,
f7,
0a,
f4,
f5,
0e,
1d,
07,
f6,
01,
0d,
06,
00,
0b,
17,
1c,
12,
ed,
e1,
e0,
e1,
f3,
fd,
fc,
e5,
eb,
f5,
fd,
0a,
eb,
eb,
f4,
16,
1a,
17,
f4,
fe,
06,
0a,
07,
04,
14,
08,
0f,
f7,
e6,
f3,
de,
e0,
fd,
04,
0e,
fb,
0b,
00,
21,
21,
e0,
c5,
f9,
06,
06,
1d,
fd,
f7,
fa,
05,
04,
f8,
04,
fc,
e9,
df,
dc,
ea,
e3,
e0,
10,
10,
0a,
11,
18,
21,
39,
22,
e2,
da,
e7,
05,
08,
04,
fb,
fb,
fe,
0d,
04,
08,
f2,
d9,
eb,
ef,
f3,
e7,
f1,
ff,
16,
14,
20,
1c,
10,
0f,
22,
12,
d5,
db,
e7,
07,
07,
13,
03,
17,
14,
08,
09,
f5,
ee,
db,
f0,
ef,
f6,
ec,
03,
ff,
13,
08,
14,
10,
1e,
0c,
10,
0a,
df,
e8,
f7,
0d,
11,
17,
11,
1f,
1b,
11,
06,
05,
f7,
e0,
ed,
fd,
ed,
fb,
08,
10,
00,
08,
f8,
01,
13,
11,
f9,
ea,
d8,
f5,
f7,
00,
25,
14,
0f,
20,
15,
1a,
00,
08,
ff,
04,
04,
0c,
06,
03,
07,
fc,
0d,
ff,
f8,
f3,
fd,
f6,
ee,
e8,
ca,
d9,
fb,
01,
08,
0d,
09,
0f,
05,
02,
ff,
0c,
0d,
0e,
13,
0e,
07,
02,
f6,
04,
fe,
e7,
dd,
e7,
ef,
ea,
ee,
e7,
ce,
02,
fb,
f6,
fe,
05,
ed,
f9,
e8,
fa,
f3,
07,
07,
07,
10,
15,
19,
10,
07,
fd,
00,
f7,
e8,
e8,
ea,
fd,
d9,
db,
e8,
0e,
07,
f8,
f6,
07,
ef,
e3,
dc,
e3,
01,
fd,
fd,
fd,
11,
0d,
15,
14,
05,
10,
04,
f3,
ff,
e4,
de,
f2,
e8,
d6,
d7,
03,
0a,
f9,
00,
06,
18,
09,
f3,
fd,
fe,
03,
05,
0b,
17,
14,
1d,
24,
16,
11,
fe,
fe,
ec,
d7,
da,
df,
e1,
d4,
d3,
f6,
fa,
fb,
fe,
ff,
1f,
26,
20,
22,
0e,
0a,
17,
1b,
15,
11,
26,
2a,
18,
0e,
08,
ef,
e6,
da,
e5,
e6,
e4,
e6,
e6,
f5,
07,
08,
03,
f7,
16,
29,
0b,
16,
1b,
1b,
18,
16,
1a,
13,
0b,
fe,
05,
03,
fe,
fc,
f0,
e4,
f5,
f7,
f4,
05,
ee,
fa,
fc,
fc,
0b,
04,
04,
e8,
ef,
e6,
f2,
fc,
02,
f5,
03,
fa,
f2,
f3,
f7,
03,
ec,
01,
02,
f4,
01,
11,
f5,
fb,
14,
00,
fd,
fe,
05,
02,
04,
14,
05,
fe,
f0,
06,
fb,
02,
0a,
02,
10,
04,
12,
19,
1e,
11,
0a,
09,
0a,
0e,
17,
08,
09,
05,
02,
f9,
ff,
00,
f9,
f7,
05,
08,
08,
f7,
f5,
03,
0b,
08,
fd,
09,
ff,
07,
f9,
02,
0a,
fb,
fc,
f7,
ff,
04,
f5,
fb,
f6,
0a,
04,
fc,
08,
f9,
03,
04,
ff,
f6,
e7,
f6,
f3,
fc,
05,
fd,
fd,
ef,
e9,
f9,
03,
04,
fc,
f7,
04,
f7,
03,
f9,
f7,
f6,
03,
01,
0b,
ff,
f4,
fd,
e3,
de,
dd,
eb,
f4,
f6,
fb,
fd,
05,
04,
ff,
04,
04,
03,
f9,
ec,
08,
0e,
f7,
07,
0a,
fb,
04,
fa,
eb,
f7,
f0,
ef,
d7,
ef,
f4,
f0,
f1,
f3,
03,
14,
17,
2e,
1e,
22,
0c,
0f,
f9,
11,
0a,
fc,
05,
f3,
f9,
01,
00,
f6,
ff,
0a,
01,
da,
cc,
f5,
f5,
f3,
f0,
e8,
f0,
fd,
14,
15,
1c,
1b,
19,
01,
fb,
0d,
00,
ed,
e6,
01,
f7,
06,
09,
0a,
f3,
0a,
e6,
e2,
ea,
f7,
e6,
f2,
eb,
fc,
06,
0c,
02,
fb,
0f,
19,
13,
21,
0e,
17,
17,
ef,
e5,
fc,
ed,
f6,
fd,
22,
00,
f9,
db,
e8,
ea,
e1,
ef,
f3,
1d,
0f,
04,
08,
fc,
09,
0d,
0f,
18,
17,
20,
23,
16,
e1,
db,
03,
f8,
03,
0b,
ff,
18,
08,
de,
f7,
03,
00,
0a,
0f,
13,
01,
fc,
ef,
f0,
13,
2d,
2f,
21,
1c,
14,
16,
1a,
05,
dd,
f9,
f9,
f6,
11,
02,
f9,
df,
eb,
07,
0e,
1d,
15,
0a,
0c,
f9,
c1,
ad,
d7,
0c,
1f,
24,
19,
16,
19,
1b,
1d,
15,
ed,
04,
fe,
0a,
ff,
f8,
07,
f5,
07,
17,
21,
25,
16,
06,
e2,
d0,
9a,
9e,
d6,
12,
2f,
11,
fc,
0d,
2a,
33,
1b,
0e,
f6,
ec,
f5,
f9,
14,
ee,
0a,
0b,
14,
25,
1e,
20,
1d,
e8,
cc,
a8,
9e,
ad,
f0,
1f,
31,
0c,
ff,
05,
36,
1d,
17,
0d,
11,
09,
fa,
03,
05,
fc,
0b,
1e,
23,
21,
09,
08,
fc,
dc,
bf,
b5,
a8,
d7,
04,
1e,
20,
16,
fd,
14,
24,
11,
11,
0a,
18,
13,
f8,
07,
fa,
ff,
ff,
13,
10,
24,
0d,
05,
da,
e1,
cf,
d3,
e8,
0a,
0e,
13,
11,
fd,
eb,
f4,
ef,
16,
2a,
2b,
13,
1d,
08,
09,
01,
f4,
fa,
1c,
04,
08,
0e,
e7,
d3,
e1,
dc,
e8,
ec,
14,
04,
05,
01,
02,
e6,
e8,
02,
09,
13,
00,
10,
1e,
01,
0b,
00,
0e,
f6,
2f,
16,
07,
01,
ec,
ee,
ea,
ef,
f6,
f7,
07,
10,
fb,
fd,
e7,
d4,
f1,
ff,
16,
1d,
0b,
04,
f3,
09,
07,
03,
1f,
f6,
17,
19,
02,
e6,
df,
d6,
d8,
ef,
02,
03,
0d,
09,
fc,
e0,
d3,
e4,
ec,
fc,
fa,
03,
02,
f5,
04,
ff,
03,
0e,
1e,
06,
2f,
0f,
f2,
e5,
c0,
dc,
d0,
f5,
f4,
11,
f5,
eb,
e6,
e7,
ed,
f5,
fb,
fe,
fb,
0b,
fd,
f1,
f4,
00,
08,
0e,
14,
02,
15,
0d,
f0,
fd,
e4,
e8,
ec,
f4,
fb,
05,
f0,
d7,
d8,
e5,
03,
06,
00,
f8,
08,
ee,
e7,
d1,
eb,
fd,
0c,
21,
2a,
0c,
09,
0d,
fe,
11,
ff,
ea,
f1,
05,
16,
0c,
ec,
d6,
f0,
f3,
00,
0f,
07,
f9,
09,
fc,
f4,
fe,
f9,
f2,
fd,
1d,
08,
2c,
1d,
fe,
16,
16,
06,
03,
00,
22,
19,
08,
d6,
e6,
f8,
1a,
13,
1b,
02,
f3,
ff,
f2,
0a,
08,
e2,
02,
01,
12,
1f,
13,
22,
14,
2f,
20,
1b,
29,
27,
27,
22,
f6,
e9,
f3,
0d,
1b,
1c,
1b,
fe,
02,
00,
02,
fd,
fa,
03,
10,
05,
02,
23,
17,
11,
25,
3e,
1e,
1b,
22,
27,
26,
05,
fd,
f7,
08,
15,
14,
17,
08,
04,
02,
f1,
06,
fe,
00,
1c,
fe,
00,
05,
0d,
fb,
00,
09,
0f,
11,
15,
23,
2b,
21,
05,
0a,
04,
0a,
08,
14,
18,
13,
11,
0b,
f9,
e9,
e9,
e9,
18,
07,
06,
01,
2f,
0a,
f7,
23,
0d,
fe,
fe,
04,
16,
21,
13,
0e,
fe,
fb,
14,
0e,
19,
1f,
1b,
0a,
fc,
e3,
fb,
00,
08,
ff,
f5,
01,
06,
20,
ff,
10,
15,
11,
1d,
22,
04,
fb,
fc,
e8,
f0,
0d,
0e,
15,
16,
0c,
18,
03,
0f,
01,
0e,
07,
04,
fc,
01,
f6,
08,
f6,
e5,
ee,
e5,
f4,
13,
0a,
fe,
dd,
ec,
de,
ed,
df,
e3,
d9,
e4,
fa,
0d,
0e,
17,
f4,
01,
0a,
fd,
ff,
00,
05,
04,
07,
02,
f9,
e8,
f6,
11,
0e,
00,
ff,
f5,
f9,
ff,
f6,
0a,
e6,
e8,
02,
0e,
07,
0b,
f7,
fc,
04,
0a,
0b,
09,
f6,
fe,
01,
0a,
f6,
ff,
f9,
f8,
03,
03,
05,
fd,
f8,
ef,
f7,
f2,
f6,
fb,
ff,
08,
00,
f8,
04,
02,
fd,
04,
03,
03,
fa,
06,
0a,
04,
fd,
05,
f8,
f6,
fd,
f9,
fe,
ff,
0a,
fd,
fd,
00,
07,
09,
ff,
08,
02,
fc,
f7,
ff,
04,
ff,
0a,
08,
0b,
fb,
03,
0a,
ff,
18,
16,
0a,
fe,
01,
16,
10,
10,
18,
01,
0b,
05,
08,
12,
03,
03,
01,
03,
02,
01,
04,
ff,
09,
f6,
fa,
fd,
ee,
08,
0d,
12,
18,
18,
2b,
31,
18,
20,
30,
2d,
18,
14,
0d,
0e,
ff,
09,
09,
07,
fc,
fc,
f8,
07,
fd,
f8,
0c,
15,
16,
07,
08,
14,
fe,
fe,
fc,
f5,
ea,
04,
f7,
e8,
ee,
e4,
eb,
f1,
e3,
e8,
fb,
01,
07,
04,
f2,
02,
fb,
fc,
02,
ee,
ff,
0b,
17,
02,
02,
fd,
f2,
f3,
01,
f8,
f2,
d6,
e5,
dc,
e0,
da,
f3,
ed,
e6,
e8,
e8,
eb,
07,
17,
05,
05,
0d,
02,
1d,
14,
0e,
f8,
04,
f4,
f6,
09,
0a,
0f,
09,
ff,
e4,
d7,
da,
e5,
f8,
f3,
f4,
ee,
ef,
f8,
0f,
15,
06,
f3,
10,
1a,
12,
e8,
f8,
0e,
0f,
fe,
fb,
0a,
11,
1a,
1a,
08,
0d,
f1,
ed,
e9,
f1,
f6,
ef,
f0,
f5,
0a,
13,
0d,
ff,
f5,
0e,
1c,
15,
eb,
fe,
0d,
fc,
0d,
0b,
0a,
1a,
27,
1f,
0e,
03,
e7,
f3,
e5,
f5,
f3,
ec,
ef,
f0,
e5,
f0,
08,
ea,
13,
0b,
0b,
1b,
0e,
0c,
06,
02,
08,
08,
01,
02,
1f,
1c,
11,
fe,
fd,
e6,
e1,
dd,
e3,
e7,
e4,
d5,
ee,
04,
01,
08,
0c,
ff,
11,
0f,
19,
10,
0f,
0b,
07,
1a,
01,
14,
15,
2b,
17,
06,
f9,
f8,
e6,
e2,
d1,
da,
dd,
e3,
e9,
06,
0a,
1b,
0f,
04,
06,
10,
1a,
15,
08,
0a,
17,
11,
04,
f8,
ff,
1d,
19,
13,
12,
07,
fe,
ec,
df,
eb,
e5,
ee,
ef,
fc,
06,
0a,
0e,
09,
05,
15,
15,
1c,
14,
0e,
0b,
0d,
fc,
e9,
ef,
0a,
18,
1c,
18,
17,
01,
f2,
e4,
ee,
e2,
e3,
ed,
ed,
09,
0d,
13,
22,
0a,
10,
10,
01,
06,
0d,
fa,
eb,
ea,
cf,
ec,
1a,
25,
18,
24,
21,
04,
f2,
eb,
e9,
ed,
f3,
f8,
f7,
19,
ff,
1f,
16,
09,
0d,
00,
e5,
e6,
ee,
ed,
e5,
dc,
d2,
fb,
18,
1c,
21,
28,
12,
07,
de,
e2,
e6,
f5,
f5,
17,
1e,
fe,
f7,
11,
12,
08,
eb,
e2,
e6,
de,
d3,
e2,
e7,
e7,
ea,
0b,
20,
25,
26,
1f,
01,
f8,
e1,
e2,
ee,
03,
06,
19,
2b,
02,
03,
06,
f4,
fc,
e9,
df,
eb,
e3,
da,
d1,
d3,
f2,
10,
17,
1c,
23,
20,
0f,
f6,
eb,
d8,
de,
ec,
e7,
01,
0c,
0b,
12,
12,
ef,
f3,
fd,
fb,
d7,
cb,
ca,
da,
c8,
ef,
10,
1c,
24,
26,
11,
19,
04,
ec,
ee,
e2,
f1,
e0,
e8,
fa,
16,
0e,
1a,
01,
ef,
fa,
e6,
ec,
db,
cf,
ca,
cc,
e1,
15,
1c,
33,
22,
1b,
0f,
f6,
fc,
f2,
e8,
e8,
df,
ef,
e8,
00,
34,
25,
0a,
0a,
02,
e2,
ed,
e3,
d3,
ca,
ce,
c9,
e0,
14,
2a,
31,
21,
20,
07,
ef,
ec,
ef,
ea,
ef,
e9,
f0,
f6,
ff,
1d,
13,
0b,
0e,
08,
f0,
e5,
e7,
da,
da,
cf,
db,
f0,
0b,
14,
20,
1e,
09,
fc,
f3,
fa,
fa,
f6,
f7,
e2,
00,
f7,
04,
1d,
25,
0a,
fe,
f7,
ee,
ee,
dc,
d8,
d8,
e1,
ed,
f2,
fd,
03,
11,
0e,
06,
0f,
09,
03,
f4,
05,
03,
f2,
ee,
f8,
12,
12,
08,
f9,
01,
f9,
e9,
f2,
dc,
d9,
dc,
ed,
ea,
fc,
f9,
f2,
ed,
07,
0f,
15,
04,
08,
12,
01,
02,
07,
ed,
08,
15,
1a,
f5,
08,
0a,
0d,
f0,
ef,
f4,
00,
fc,
ee,
01,
fd,
00,
ed,
ed,
03,
0f,
06,
fe,
ff,
fe,
ff,
12,
10,
02,
12,
14,
13,
fc,
f9,
04,
f7,
e1,
d5,
e6,
fd,
06,
f7,
f0,
00,
f0,
f5,
06,
07,
0a,
04,
03,
0b,
04,
10,
0b,
13,
1b,
11,
0e,
16,
03,
fe,
ff,
fb,
f3,
d8,
ee,
ff,
f3,
e9,
f3,
ec,
f7,
ed,
06,
ef,
fd,
00,
f7,
06,
11,
13,
1b,
0a,
20,
2e,
2d,
23,
0d,
09,
fa,
09,
04,
ec,
ff,
06,
04,
f4,
e4,
f1,
db,
f3,
03,
f5,
0c,
ee,
fc,
12,
01,
07,
1c,
05,
fb,
01,
f9,
13,
0f,
02,
f5,
f8,
04,
0e,
06,
f9,
02,
0a,
10,
14,
0c,
05,
1a,
10,
2c,
22,
16,
17,
1e,
19,
1d,
12,
06,
10,
01,
f9,
05,
01,
ff,
f5,
fe,
01,
02,
09,
0d,
fe,
04,
11,
33,
1c,
2a,
2e,
39,
1b,
19,
28,
23,
26,
13,
0a,
01,
fd,
01,
03,
f7,
f6,
05,
07,
f6,
0a,
09,
07,
01,
fb,
00,
fc,
06,
07,
00,
05,
fe,
10,
f6,
07,
ff,
fe,
05,
f8,
03,
fa,
fc,
02,
07,
05,
fe,
02,
0a,
05,
06,
10,
0d,
18,
20,
25,
27,
fd,
0b,
17,
f5,
05,
08,
12,
18,
11,
0d,
06,
13,
0c,
09,
02,
fc,
ff,
fe,
08,
00,
f7,
0c,
0d,
1a,
17,
30,
33,
3b,
30,
15,
0d,
09,
15,
11,
01,
fa,
10,
19,
18,
1d,
10,
14,
09,
06,
f8,
03,
02,
fb,
fb,
12,
f9,
07,
0c,
12,
13,
17,
11,
0d,
0d,
f7,
fb,
e8,
ff,
ee,
f4,
ef,
fc,
0c,
09,
1e,
09,
f7,
f6,
01,
f5,
04,
ed,
02,
13,
21,
00,
0c,
11,
02,
0d,
02,
08,
08,
e7,
f0,
f5,
e9,
ee,
f1,
f4,
fb,
09,
f8,
f4,
e3,
fa,
09,
f7,
0b,
ef,
01,
12,
1e,
19,
21,
1b,
0c,
02,
00,
fe,
02,
f7,
fe,
f3,
ea,
e4,
f2,
f3,
fa,
04,
f4,
f4,
e7,
fe,
0a,
09,
0e,
1a,
1e,
16,
2f,
2e,
2b,
1d,
19,
0e,
0f,
ee,
ec,
eb,
f5,
f2,
e2,
eb,
eb,
ff,
07,
f7,
ec,
e3,
f8,
fd,
0b,
0b,
1c,
2d,
32,
18,
27,
30,
22,
27,
0b,
10,
04,
f3,
da,
e4,
f4,
f7,
f0,
fe,
ea,
f0,
f5,
f5,
ee,
f3,
11,
f1,
f4,
0f,
30,
1b,
1e,
0f,
14,
16,
16,
23,
17,
11,
0d,
f5,
e0,
e3,
f2,
f7,
fe,
02,
04,
f4,
f7,
fe,
e4,
ef,
de,
fa,
15,
10,
15,
11,
1a,
1f,
16,
11,
08,
0f,
08,
15,
06,
f7,
f5,
e9,
f8,
07,
12,
0d,
07,
04,
06,
e8,
f2,
de,
e5,
01,
20,
16,
0f,
fe,
fa,
19,
07,
01,
fd,
0a,
0f,
05,
06,
ff,
e8,
de,
0b,
15,
0c,
10,
05,
10,
0c,
e7,
e8,
e3,
e9,
f4,
13,
05,
f7,
ef,
f2,
f1,
f9,
f3,
eb,
05,
fe,
0b,
f5,
e7,
d0,
de,
00,
08,
0d,
0d,
11,
05,
0e,
f2,
e6,
dc,
db,
ef,
18,
02,
0d,
f7,
fc,
da,
e7,
f1,
05,
f5,
0b,
fe,
f2,
d4,
ce,
e0,
02,
11,
16,
0a,
fe,
05,
00,
f9,
08,
e8,
e9,
07,
09,
02,
12,
f3,
f1,
e5,
f1,
fe,
09,
0b,
12,
07,
e6,
df,
db,
f4,
10,
14,
10,
f9,
ef,
f8,
fe,
04,
1f,
0e,
00,
09,
ed,
ed,
21,
e9,
e1,
ed,
f4,
0f,
07,
0b,
06,
ff,
ea,
da,
eb,
f7,
19,
15,
11,
1e,
0f,
16,
16,
2f,
10,
0b,
16,
0b,
00,
f1,
f7,
ed,
e4,
fc,
12,
15,
02,
ff,
04,
ec,
d6,
d7,
f9,
0c,
1a,
1b,
24,
16,
0f,
14,
10,
1c,
12,
22,
18,
0c,
ff,
eb,
ee,
dc,
e1,
06,
10,
1f,
07,
02,
ea,
ce,
cc,
e5,
02,
26,
25,
36,
1d,
20,
1d,
1e,
0e,
0d,
0c,
39,
2d,
0a,
05,
f2,
f6,
de,
f4,
f3,
0a,
0d,
f3,
ef,
db,
dc,
d9,
f7,
28,
24,
1f,
1f,
2e,
23,
15,
12,
19,
ff,
0b,
30,
24,
08,
11,
04,
00,
e9,
e2,
ed,
ff,
fd,
fd,
df,
da,
e3,
f6,
00,
1b,
1b,
25,
1f,
14,
ff,
09,
ff,
ff,
0a,
09,
3e,
32,
15,
01,
0b,
fe,
de,
f5,
ec,
f3,
05,
e5,
de,
db,
fa,
fa,
0a,
14,
0e,
0e,
fc,
eb,
ef,
f8,
fa,
f9,
f5,
00,
24,
1b,
f5,
07,
f2,
f7,
fd,
f6,
fd,
e3,
f8,
f1,
e2,
f7,
04,
07,
0c,
10,
11,
fe,
f1,
d2,
e3,
e2,
f5,
f7,
f3,
f9,
f3,
0e,
fa,
00,
08,
f6,
f7,
eb,
ec,
e6,
ee,
f8,
fa,
05,
11,
0a,
0b,
02,
00,
fb,
e4,
c8,
c6,
d8,
e2,
f3,
ef,
fc,
f7,
06,
fa,
f9,
04,
f5,
f6,
e7,
ee,
01,
00,
08,
0d,
0a,
02,
06,
06,
03,
02,
e9,
e3,
d5,
d0,
cc,
e5,
f0,
e9,
fb,
f5,
f5,
07,
fd,
01,
e4,
d0,
eb,
fe,
10,
0f,
09,
0e,
0f,
09,
f9,
04,
fd,
fa,
ea,
e9,
e2,
dc,
ce,
f2,
e8,
e5,
ea,
05,
fb,
ff,
07,
01,
f8,
e7,
ef,
0e,
0c,
06,
06,
fc,
f8,
03,
f7,
f7,
06,
0c,
f5,
f2,
dd,
e4,
e1,
da,
d8,
d9,
06,
1a,
0f,
f6,
0a,
01,
f0,
0e,
0f,
01,
fe,
01,
0a,
06,
fd,
f7,
ff,
05,
0b,
10,
0b,
f0,
e6,
e5,
d7,
e6,
e7,
dc,
ee,
f7,
0d,
fd,
00,
04,
ff,
f5,
e7,
ea,
02,
fb,
09,
05,
01,
fc,
04,
04,
0e,
16,
04,
0c,
01,
f8,
eb,
f1,
0e,
08,
fc,
05,
04,
06,
06,
f7,
ff,
00,
1c,
04,
f8,
05,
fa,
10,
09,
0d,
01,
15,
14,
06,
14,
19,
1c,
11,
fc,
11,
0d,
17,
06,
07,
08,
f9,
02,
fc,
01,
f9,
00,
fe,
fd,
fb,
f9,
f6,
f6,
f8,
05,
fd,
08,
ff,
fb,
01,
fa,
fb,
0a,
09,
fa,
02,
07,
f7,
f8,
f6,
05,
ff,
fe,
f6,
07,
06,
0f,
1d,
15,
0f,
0d,
0d,
0d,
fb,
12,
0f,
fc,
01,
09,
07,
10,
0b,
0d,
0d,
f9,
01,
f9,
03,
00,
02,
07,
12,
0f,
08,
1a,
1c,
18,
11,
24,
17,
1d,
28,
32,
3b,
29,
0c,
17,
08,
12,
09,
18,
07,
07,
fa,
01,
05,
fe,
08,
13,
09,
0a,
1b,
10,
2c,
18,
1b,
1a,
1b,
25,
1c,
12,
16,
1c,
00,
08,
04,
f8,
f2,
f4,
03,
0d,
ef,
e8,
06,
0b,
11,
23,
19,
17,
27,
22,
14,
29,
15,
17,
11,
21,
1c,
15,
17,
09,
ff,
0a,
11,
0c,
f5,
ef,
e7,
ef,
ed,
09,
07,
09,
07,
03,
21,
30,
1d,
11,
0d,
0b,
fc,
ff,
f9,
fa,
08,
0c,
10,
16,
0e,
02,
0d,
10,
0a,
06,
fe,
fb,
0a,
0c,
08,
07,
0e,
03,
09,
21,
12,
0d,
f9,
fc,
f7,
f2,
ef,
ff,
f4,
f1,
ff,
fe,
ef,
f1,
f9,
ff,
00,
05,
fe,
f8,
14,
08,
08,
f7,
03,
f4,
fe,
3b,
19,
fe,
fd,
fd,
f0,
e7,
ee,
e8,
f8,
f8,
ef,
f0,
e0,
f3,
f7,
ff,
fb,
0e,
08,
0a,
05,
fa,
fe,
ea,
f1,
f5,
02,
2a,
17,
0e,
0e,
f2,
fb,
f3,
ed,
f8,
0b,
05,
08,
03,
02,
fe,
03,
f8,
fe,
03,
f5,
f8,
fa,
04,
02,
e2,
ee,
09,
fd,
26,
1b,
12,
12,
01,
ec,
f3,
e9,
f5,
00,
0c,
0f,
1b,
06,
04,
1c,
12,
0a,
0e,
fc,
de,
f0,
fb,
f4,
f1,
ef,
ee,
0e,
1b,
05,
0f,
f7,
e6,
e5,
fc,
f2,
06,
03,
11,
09,
0a,
00,
14,
0f,
09,
14,
00,
0e,
f0,
da,
f5,
01,
f1,
f0,
f8,
13,
0a,
10,
f6,
ea,
ea,
f4,
ff,
04,
08,
24,
25,
0d,
fd,
08,
0c,
12,
fd,
f5,
f6,
fa,
fa,
f9,
f9,
11,
ec,
f5,
e3,
ee,
01,
f3,
ee,
f4,
f1,
fc,
f1,
01,
1e,
20,
2a,
15,
06,
fd,
fc,
fa,
f6,
fe,
f9,
13,
24,
0f,
ee,
06,
02,
fe,
ed,
f5,
e4,
f1,
f5,
f1,
f7,
f8,
fc,
08,
20,
2f,
2d,
20,
22,
13,
fe,
e7,
f8,
e1,
f6,
0e,
04,
13,
1c,
19,
eb,
08,
fa,
fa,
d5,
ee,
ec,
e7,
f7,
fa,
f7,
0b,
16,
2f,
30,
28,
13,
06,
ee,
f2,
de,
e8,
fc,
ec,
fd,
1f,
1c,
09,
ef,
0b,
26,
16,
ec,
e9,
f7,
fc,
00,
fc,
f7,
08,
25,
32,
3f,
23,
10,
ed,
ea,
fd,
f5,
ed,
f8,
fb,
00,
12,
1a,
15,
0a,
05,
14,
1b,
02,
fd,
03,
fd,
fc,
03,
03,
15,
1c,
2b,
33,
12,
09,
dd,
e4,
f9,
f0,
06,
0a,
0f,
12,
18,
22,
0b,
07,
0d,
0c,
21,
f9,
fe,
fd,
07,
07,
00,
04,
05,
1a,
29,
1c,
fc,
01,
f4,
e5,
ff,
f6,
07,
08,
13,
0c,
f3,
06,
f9,
ea,
16,
11,
26,
fc,
07,
08,
04,
03,
fa,
ed,
fb,
0c,
13,
fc,
fb,
fe,
fe,
03,
07,
00,
02,
16,
0d,
fc,
f4,
ee,
10,
13,
e9,
07,
0f,
fc,
0b,
02,
07,
07,
10,
06,
ef,
fc,
ff,
fd,
01,
0a,
14,
0b,
1a,
0f,
19,
1b,
16,
04,
05,
fe,
ff,
f7,
f4,
09,
06,
02,
f7,
14,
18,
09,
08,
04,
f9,
f2,
fa,
04,
0d,
0c,
08,
10,
1c,
17,
1c,
0b,
14,
ef,
e0,
f7,
f6,
0d,
0a,
12,
08,
02,
07,
11,
1e,
07,
02,
0b,
02,
02,
08,
06,
15,
04,
1d,
15,
12,
08,
01,
08,
07,
de,
e7,
f7,
fd,
02,
11,
1b,
13,
06,
18,
0e,
17,
05,
fb,
fb,
f9,
07,
0f,
0f,
07,
01,
06,
19,
20,
13,
01,
02,
04,
d6,
eb,
f2,
ef,
fb,
fc,
13,
1d,
09,
01,
ff,
0e,
fd,
0e,
06,
fb,
fa,
03,
fd,
01,
0d,
09,
1f,
26,
11,
0d,
05,
fb,
de,
f2,
12,
fd,
fd,
04,
08,
f7,
08,
e5,
ed,
fa,
02,
0d,
fc,
ff,
0a,
07,
ff,
01,
10,
08,
11,
ff,
02,
00,
00,
ee,
f8,
18,
10,
fc,
fa,
05,
0a,
f1,
e5,
e8,
ff,
f4,
f6,
f3,
fe,
04,
0a,
09,
fa,
fc,
f3,
f4,
01,
ee,
f0,
d0,
d2,
e2,
e2,
f6,
08,
0b,
06,
fa,
09,
f3,
f8,
ea,
e8,
e9,
ee,
e2,
ee,
ef,
e7,
d7,
d6,
c7,
eb,
ef,
e3,
d0,
e0,
ec,
de,
f9,
f9,
01,
00,
f6,
f9,
fe,
02,
09,
e9,
e8,
e2,
fd,
ef,
f3,
e9,
ec,
e2,
dc,
d2,
e2,
c4,
ba,
d5,
eb,
f2,
e7,
ff,
02,
f6,
00,
f8,
fe,
0a,
f6,
fd,
f7,
06,
f9,
fa,
0a,
fb,
04,
fc,
f6,
ff,
0c,
0c,
0d,
01,
f9,
06,
04,
fa,
04,
fd,
f9,
0b,
f7,
f8,
f9,
0a,
02,
00,
ff,
f3,
fc,
fd,
08,
14,
11,
0e,
f8,
04,
fa,
1f,
0b,
06,
fc,
fc,
0a,
fc,
09,
04,
fa,
fe,
fc,
04,
fb,
03,
f5,
06,
02,
06,
09,
0c,
15,
12,
2a,
2e,
1e,
32,
4a,
52,
42,
2e,
03,
03,
fb,
09,
15,
0d,
0e,
13,
1b,
fc,
fa,
fc,
fa,
11,
08,
05,
2a,
19,
2f,
1b,
25,
1c,
25,
2a,
25,
21,
12,
13,
09,
f6,
f4,
f1,
f7,
f4,
12,
0e,
04,
ec,
02,
f6,
05,
fc,
17,
2d,
40,
30,
20,
29,
1c,
2b,
0a,
09,
0a,
0b,
fa,
ed,
f9,
ec,
f4,
f0,
ee,
eb,
ec,
e2,
da,
f4,
fd,
02,
ff,
0a,
1b,
36,
3a,
1e,
21,
07,
14,
15,
03,
10,
f8,
0f,
ff,
fc,
fe,
eb,
dd,
d3,
dd,
dc,
fb,
f0,
df,
f3,
0f,
08,
00,
f1,
17,
32,
1b,
1b,
fe,
f8,
ff,
fe,
06,
fb,
03,
0f,
05,
10,
fb,
e7,
e0,
ca,
d8,
e3,
d5,
ef,
ea,
ec,
f4,
00,
08,
f7,
24,
3b,
15,
11,
fb,
e6,
ea,
e7,
e7,
eb,
f6,
0c,
0d,
14,
12,
e6,
d2,
c8,
c6,
d6,
d0,
d4,
ee,
f8,
f7,
04,
f4,
04,
1b,
23,
0c,
f4,
eb,
d7,
e2,
d8,
d6,
d1,
fa,
19,
25,
1d,
07,
ee,
cf,
c1,
c1,
c8,
c7,
cb,
e6,
e5,
f7,
10,
f6,
fb,
fc,
25,
1d,
f7,
e5,
cf,
ce,
b6,
d2,
e7,
0e,
39,
43,
22,
00,
e2,
c5,
cd,
b7,
bc,
d0,
d1,
db,
e4,
f2,
01,
f4,
ff,
04,
09,
f8,
e4,
d2,
c1,
bd,
cd,
e0,
fa,
1d,
3c,
34,
1b,
ed,
ce,
c5,
cd,
d7,
db,
d6,
ca,
ed,
ef,
fb,
00,
13,
03,
00,
ef,
f7,
d2,
cf,
c9,
da,
fb,
ff,
15,
1a,
2e,
22,
f7,
dc,
cc,
cc,
d9,
ee,
eb,
df,
de,
e6,
ee,
ff,
0b,
08,
f6,
ea,
ea,
f0,
da,
db,
f2,
03,
19,
22,
28,
22,
27,
01,
f5,
d1,
d9,
db,
ea,
02,
f9,
ee,
03,
08,
fe,
0e,
13,
fd,
06,
fa,
e1,
ef,
e4,
eb,
16,
22,
1c,
0f,
17,
1c,
12,
07,
ed,
f0,
f6,
f1,
ff,
0b,
fc,
18,
0c,
16,
17,
10,
ee,
fd,
02,
00,
fa,
f0,
01,
10,
1d,
1e,
12,
02,
04,
0a,
1b,
01,
06,
f3,
01,
0f,
03,
25,
1a,
20,
12,
2d,
46,
10,
00,
09,
16,
0c,
0f,
05,
16,
13,
29,
16,
08,
f9,
09,
0e,
1d,
fd,
0f,
f1,
f4,
04,
18,
15,
15,
2a,
17,
31,
3e,
16,
fc,
09,
14,
0c,
09,
ff,
0d,
1e,
09,
18,
fe,
f9,
03,
10,
22,
01,
0a,
ec,
03,
15,
20,
1c,
1c,
29,
23,
46,
40,
1e,
0a,
fe,
19,
18,
f3,
ed,
f5,
0d,
fd,
02,
f7,
f4,
f2,
14,
1f,
16,
07,
ff,
fa,
0d,
15,
26,
1c,
15,
0c,
38,
2d,
0a,
f7,
fd,
1a,
10,
f9,
e3,
e1,
f5,
f6,
f5,
e1,
f3,
f5,
04,
09,
04,
03,
fc,
15,
07,
0c,
2e,
18,
18,
03,
39,
26,
12,
00,
f4,
f3,
fa,
f7,
eb,
e9,
f0,
dc,
eb,
eb,
ee,
f2,
03,
03,
19,
1c,
1e,
10,
1b,
0f,
18,
1e,
13,
0c,
37,
22,
06,
08,
ff,
f5,
0f,
e8,
ee,
da,
e6,
f1,
fc,
eb,
fd,
ec,
03,
0e,
10,
1f,
17,
28,
17,
1b,
0a,
00,
05,
0b,
0a,
12,
06,
0c,
1f,
1d,
09,
f5,
e9,
db,
e7,
e9,
e7,
f1,
f3,
ef,
f6,
f5,
03,
04,
12,
1f,
1d,
04,
fb,
f3,
f7,
05,
03,
02,
04,
ff,
0a,
23,
10,
03,
f0,
e4,
ea,
eb,
06,
01,
ee,
e6,
e2,
f1,
f1,
fe,
06,
15,
03,
fd,
fc,
fe,
f2,
fd,
09,
02,
fc,
fe,
fb,
14,
0b,
f8,
02,
f6,
fe,
ef,
0a,
10,
0c,
f5,
f9,
f2,
03,
fd,
01,
0c,
10,
f5,
01,
fb,
e3,
eb,
f9,
07,
ff,
09,
f7,
0e,
fe,
fe,
fa,
04,
0b,
06,
01,
fe,
0c,
ff,
04,
04,
f0,
f1,
f7,
fb,
f6,
f6,
10,
fd,
eb,
02,
11,
07,
f7,
01,
06,
ff,
00,
07,
0a,
03,
fb,
e8,
e7,
f2,
f1,
ff,
f3,
e6,
e6,
dc,
e2,
dc,
d7,
e2,
f3,
ff,
e8,
ec,
13,
03,
0b,
05,
08,
00,
f5,
fb,
01,
ff,
f1,
e7,
d0,
d9,
d4,
cb,
cb,
b5,
d8,
dd,
f4,
e9,
f4,
f7,
f2,
f0,
ee,
fc,
0a,
03,
02,
f7,
fd,
fc,
fb,
01,
02,
ff,
f2,
f2,
e9,
eb,
e8,
ea,
e6,
cb,
f1,
ef,
eb,
d4,
d9,
f2,
01,
03,
08,
04,
fc,
f9,
f8,
07,
fa,
08,
f6,
f9,
fa,
f7,
06,
00,
01,
0a,
04,
03,
ff,
06,
01,
09,
08,
f7,
f6,
fb,
04,
0a,
fe,
04,
fa,
fc,
fa,
f9,
fa,
04,
0b,
07,
0a,
03,
fd,
fb,
f4,
0b,
01,
11,
03,
11,
16,
0c,
0c,
16,
fe,
01,
fc,
fb,
05,
08,
f7,
01,
09,
f7,
ff,
fc,
f6,
fa,
f4,
f7,
0b,
07,
0d,
04,
0f,
05,
0f,
12,
30,
23,
1e,
12,
ff,
04,
ef,
eb,
0a,
0d,
09,
06,
08,
f5,
03,
19,
10,
01,
04,
05,
08,
fe,
11,
0e,
fc,
05,
0f,
07,
11,
0c,
0a,
fe,
f1,
ed,
f1,
02,
07,
fa,
05,
fc,
f6,
0b,
ff,
0c,
f2,
ea,
05,
0a,
fa,
f0,
04,
17,
1a,
15,
19,
1e,
18,
28,
11,
19,
07,
10,
ff,
03,
08,
07,
10,
0f,
04,
fb,
f7,
05,
01,
f2,
ee,
ed,
ee,
ea,
f0,
f8,
fb,
fe,
f9,
ff,
04,
00,
13,
14,
0a,
25,
26,
16,
0b,
0d,
21,
14,
fe,
0a,
0b,
e8,
e6,
f7,
e2,
eb,
f6,
f5,
f7,
f3,
f6,
f1,
f8,
f4,
fe,
fd,
f6,
f9,
0b,
0b,
1c,
0b,
1e,
2a,
1f,
17,
08,
ff,
07,
f9,
e8,
f8,
fc,
f6,
fc,
f5,
f1,
f2,
fb,
f6,
f9,
fb,
f1,
f9,
05,
08,
06,
09,
09,
15,
29,
21,
25,
05,
0b,
f4,
e9,
e7,
fb,
fe,
ff,
ff,
00,
f8,
fa,
01,
03,
1c,
12,
08,
05,
05,
01,
0b,
18,
08,
0f,
13,
27,
29,
14,
20,
16,
ed,
e9,
ea,
f7,
08,
fd,
03,
0c,
07,
13,
14,
11,
0d,
12,
16,
05,
0c,
01,
11,
0e,
04,
0c,
0d,
1d,
2f,
2f,
19,
fe,
f2,
f9,
f9,
fe,
14,
1e,
1e,
17,
11,
05,
0b,
0f,
0d,
15,
1e,
01,
f8,
f6,
00,
f5,
fa,
08,
16,
2b,
2e,
2d,
29,
10,
f3,
f0,
01,
03,
20,
17,
20,
0e,
01,
0a,
f1,
eb,
f8,
09,
03,
f6,
e7,
db,
f6,
02,
ed,
00,
f5,
05,
14,
21,
1a,
10,
f6,
e7,
e9,
06,
12,
16,
09,
f9,
ff,
f6,
ef,
db,
ed,
0b,
04,
fc,
df,
de,
e2,
f4,
f1,
f1,
e3,
da,
00,
12,
11,
fc,
0d,
ec,
e5,
fe,
ec,
03,
fc,
f4,
f1,
e3,
cf,
db,
00,
13,
0b,
fd,
de,
dd,
e8,
eb,
e2,
d2,
d0,
cb,
db,
f7,
18,
02,
0c,
fa,
04,
f8,
d1,
d4,
ee,
e9,
dd,
db,
e1,
e2,
0d,
20,
0e,
f4,
ed,
d9,
e9,
e1,
d0,
ba,
b6,
ba,
cf,
f5,
10,
1a,
02,
f1,
f8,
f7,
d9,
d8,
e4,
dd,
e9,
e5,
ea,
02,
21,
2f,
1b,
f8,
ea,
e2,
d9,
d6,
bf,
b7,
c2,
c2,
ea,
16,
14,
08,
fa,
03,
07,
0f,
e6,
dd,
d1,
cb,
cb,
ee,
fe,
1a,
21,
21,
28,
f5,
ef,
ec,
de,
e2,
d3,
d9,
e9,
eb,
03,
28,
1c,
15,
04,
f3,
f2,
03,
ed,
f2,
e2,
d3,
e3,
ee,
fb,
15,
1e,
14,
18,
f6,
f2,
f4,
df,
e9,
ee,
fa,
04,
0d,
02,
14,
11,
1e,
05,
fc,
ec,
ff,
06,
f1,
e7,
f2,
ec,
fd,
0a,
08,
1b,
14,
f8,
fc,
11,
0f,
04,
fe,
f7,
06,
0a,
27,
2b,
25,
12,
07,
0d,
fd,
05,
f9,
fc,
f1,
fa,
fc,
fd,
04,
00,
fe,
07,
01,
0a,
0a,
1d,
14,
23,
12,
02,
15,
26,
38,
2f,
2e,
2e,
08,
0a,
ff,
02,
05,
0e,
fe,
0e,
1d,
14,
0c,
08,
06,
06,
07,
13,
1a,
1d,
2d,
24,
2d,
2f,
2e,
3b,
46,
26,
24,
22,
07,
0d,
f6,
ff,
13,
17,
11,
12,
1f,
0f,
09,
14,
13,
06,
0a,
1d,
2a,
13,
27,
38,
2c,
37,
34,
3a,
30,
20,
10,
fd,
03,
0b,
0e,
00,
23,
18,
19,
20,
0e,
16,
10,
0c,
15,
01,
14,
1d,
11,
10,
2f,
2d,
3d,
35,
22,
12,
12,
20,
09,
0c,
01,
fb,
0a,
0f,
01,
07,
0e,
09,
fa,
14,
18,
05,
11,
1e,
23,
20,
23,
26,
2b,
2b,
2d,
21,
15,
0e,
11,
0e,
18,
1b,
03,
08,
06,
18,
e4,
e5,
d3,
ed,
e6,
f7,
07,
00,
15,
1b,
0a,
20,
1d,
15,
1d,
17,
1c,
ff,
f2,
f7,
07,
17,
11,
fe,
03,
fc,
04,
03,
f0,
dd,
e0,
e7,
f3,
f8,
f4,
fc,
0e,
13,
0c,
08,
03,
0b,
01,
fb,
f8,
e0,
d4,
f3,
13,
19,
05,
03,
fa,
f9,
0a,
f6,
f9,
f9,
f3,
f8,
eb,
f5,
e4,
e9,
f1,
e1,
e9,
dc,
de,
f4,
e0,
de,
dd,
d2,
d8,
e3,
fa,
00,
f5,
ff,
0a,
02,
04,
fd,
fa,
0e,
fa,
08,
fb,
fe,
f5,
f9,
f8,
f3,
ef,
dd,
f6,
ef,
e7,
ee,
f6,
f7,
e9,
f6,
fb,
fe,
03,
fc,
f9,
f7,
05,
00,
0a,
fd,
ff,
06,
08,
08,
06,
02,
07,
05,
fb,
f8,
f8,
fc,
03,
04,
08,
fd,
04,
07,
01,
0a,
fd,
f6,
f9,
f7,
05,
07,
09,
14,
11,
08,
12,
0f,
0b,
12,
1d,
13,
28,
28,
27,
12,
07,
18,
1c,
0b,
0f,
13,
02,
07,
f5,
0b,
ff,
ff,
f6,
09,
02,
19,
1e,
23,
20,
31,
2e,
31,
39,
3b,
43,
49,
43,
11,
10,
0f,
1b,
18,
11,
10,
1c,
07,
02,
02,
fc,
0a,
f5,
fa,
02,
03,
02,
18,
0b,
09,
14,
19,
07,
0c,
0a,
f8,
01,
05,
ec,
f4,
0a,
f4,
f7,
fc,
13,
16,
13,
f8,
09,
01,
07,
f1,
fa,
14,
16,
0c,
0b,
0c,
08,
07,
f8,
f3,
f7,
f8,
d8,
e3,
e5,
f0,
02,
01,
04,
f3,
fa,
02,
02,
eb,
fa,
f7,
03,
03,
d9,
f5,
04,
21,
14,
25,
19,
05,
fc,
fb,
f6,
ed,
e4,
ee,
00,
f2,
06,
fd,
f7,
fa,
04,
e8,
ec,
f7,
ef,
fb,
04,
0c,
03,
21,
29,
23,
2d,
2b,
1d,
06,
0d,
f9,
e6,
d2,
d8,
ee,
fe,
f8,
00,
00,
fb,
f9,
04,
e1,
fb,
03,
f5,
01,
13,
18,
2d,
2d,
16,
1e,
25,
15,
1a,
0d,
fc,
ef,
c7,
d4,
db,
f7,
06,
0c,
f2,
fa,
f5,
0b,
fe,
ec,
ee,
f5,
09,
06,
21,
28,
29,
2f,
27,
1d,
2c,
29,
0f,
ff,
fa,
e8,
db,
ef,
f6,
f4,
fb,
fb,
ee,
fa,
f1,
f3,
00,
fa,
ea,
f5,
f5,
17,
20,
1d,
25,
35,
19,
18,
1b,
22,
14,
07,
f5,
f1,
ea,
fe,
05,
0a,
00,
f7,
f9,
0e,
0e,
0b,
05,
fa,
f6,
df,
f4,
17,
0b,
22,
05,
28,
19,
09,
1f,
15,
0c,
1e,
10,
f9,
04,
0e,
09,
16,
06,
f7,
ff,
fc,
0a,
03,
06,
fc,
e3,
dc,
f7,
14,
25,
2f,
12,
30,
1a,
17,
1d,
22,
2b,
20,
0d,
ed,
e8,
fd,
11,
07,
fc,
09,
fb,
fe,
13,
0e,
07,
02,
d8,
e4,
14,
0a,
24,
39,
2e,
1c,
28,
0a,
25,
31,
1a,
04,
f6,
d8,
df,
ea,
08,
0a,
0a,
06,
ff,
fa,
03,
00,
09,
1b,
f8,
e6,
15,
0e,
0e,
39,
2b,
20,
13,
13,
14,
15,
16,
f9,
e1,
c8,
ce,
f6,
0e,
13,
fb,
07,
ec,
f8,
f8,
02,
23,
32,
09,
ff,
01,
02,
12,
27,
12,
0f,
27,
19,
0f,
fe,
f1,
ea,
d0,
cd,
db,
0e,
0c,
06,
02,
06,
fc,
fa,
07,
0a,
3f,
20,
11,
f6,
f7,
fe,
07,
2f,
22,
ec,
03,
0c,
fa,
dc,
c4,
b2,
c6,
ce,
fe,
2c,
1f,
13,
06,
fe,
f9,
07,
fa,
19,
1b,
12,
0b,
f0,
fb,
fe,
10,
19,
12,
f6,
05,
02,
f3,
ba,
a8,
ad,
b1,
e3,
17,
31,
2d,
22,
11,
11,
fe,
01,
f5,
f0,
f5,
0d,
0b,
eb,
f1,
f8,
03,
04,
06,
02,
f4,
f2,
d3,
ae,
96,
a7,
c2,
ff,
32,
49,
26,
1b,
12,
16,
f4,
f0,
f1,
f0,
f5,
f9,
ff,
f2,
fa,
14,
0d,
14,
ea,
f3,
f6,
dc,
c3,
bd,
a7,
b7,
e9,
2a,
44,
3b,
29,
18,
05,
0c,
04,
f8,
ef,
f4,
df,
f4,
f8,
0e,
05,
09,
17,
0f,
de,
f5,
db,
da,
c4,
b2,
b2,
d2,
0b,
46,
3e,
2d,
29,
0e,
16,
1b,
04,
f3,
dd,
da,
d7,
e2,
e4,
fa,
01,
fb,
05,
04,
ed,
d4,
d5,
c5,
c0,
b9,
cf,
f5,
23,
3a,
36,
3f,
25,
15,
1b,
0c,
03,
f7,
e1,
d7,
e2,
ff,
f9,
fd,
03,
0a,
ff,
ed,
e3,
df,
de,
d4,
c0,
d0,
dc,
06,
09,
17,
23,
32,
23,
0c,
10,
0b,
03,
e0,
e0,
d8,
e4,
ff,
0c,
fd,
fb,
0f,
10,
ee,
ec,
ef,
d9,
ce,
d4,
e8,
f3,
f0,
f0,
f0,
05,
1d,
18,
0d,
06,
f8,
ff,
e8,
f6,
df,
f0,
fb,
14,
0c,
f9,
ff,
02,
eb,
ec,
d3,
d3,
e0,
ec,
e6,
e7,
e8,
da,
f3,
08,
0e,
23,
18,
0e,
0d,
06,
04,
f6,
03,
f1,
df,
fc,
16,
fd,
09,
f5,
04,
f6,
e3,
e3,
f0,
e0,
f0,
dd,
e8,
ec,
f7,
fc,
14,
0f,
06,
fe,
03,
1b,
01,
03,
ec,
e1,
f9,
08,
00,
fb,
fc,
f7,
f9,
08,
00,
ef,
ef,
f5,
f8,
e1,
da,
eb,
f1,
ee,
f2,
f9,
ef,
f8,
0b,
f7,
f2,
ef,
f2,
f4,
fc,
ed,
05,
00,
f7,
f7,
03,
02,
ee,
f4,
fa,
06,
09,
ff,
eb,
e5,
e6,
ec,
e1,
e8,
f1,
fb,
fa,
04,
f9,
ee,
02,
02,
f4,
0f,
fb,
09,
ff,
fa,
f9,
0b,
21,
02,
0b,
03,
14,
1d,
0e,
12,
08,
38,
0b,
11,
25,
32,
19,
1d,
0b,
10,
00,
08,
fc,
07,
01,
f7,
ff,
fe,
04,
04,
fb,
ff,
f9,
fe,
fe,
05,
ff,
f9,
02,
fc,
0b,
07,
ff,
05,
09,
08,
f5,
07,
f8,
fb,
fa,
f6,
fa,
08,
fd,
04,
fa,
f9,
07,
05,
16,
13,
15,
0e,
15,
14,
1b,
11,
01,
0e,
2b,
13,
08,
0b,
0a,
08,
0b,
08,
ff,
05,
04,
f8,
fe,
ff,
fd,
00,
12,
0b,
18,
0e,
22,
20,
26,
2c,
2d,
24,
1d,
08,
05,
07,
02,
fc,
09,
0c,
09,
1a,
19,
1c,
fc,
04,
04,
05,
f8,
02,
14,
18,
1f,
25,
2c,
31,
21,
37,
2e,
35,
30,
16,
0e,
16,
0a,
0e,
10,
04,
ef,
06,
1a,
fe,
01,
0b,
08,
03,
ee,
17,
03,
1e,
20,
17,
18,
21,
12,
0f,
0b,
09,
03,
f1,
f3,
fc,
02,
fa,
f4,
f0,
f0,
ef,
f2,
04,
f4,
13,
04,
fa,
04,
0a,
1e,
17,
03,
0b,
0d,
01,
08,
0c,
02,
ff,
f6,
06,
fa,
f7,
f7,
e9,
f0,
e7,
e8,
f7,
01,
f6,
fe,
01,
fa,
07,
15,
1f,
1f,
16,
07,
0d,
17,
20,
15,
07,
0e,
0a,
0c,
00,
02,
f1,
04,
ea,
ef,
01,
e7,
e4,
f1,
fa,
f9,
0a,
0d,
19,
18,
29,
25,
17,
20,
15,
20,
20,
1d,
11,
0e,
18,
17,
01,
02,
06,
01,
02,
07,
f2,
fb,
e3,
d5,
eb,
f5,
09,
04,
0c,
29,
24,
28,
1e,
18,
1d,
0c,
ff,
fb,
08,
05,
07,
17,
16,
11,
02,
01,
f7,
f5,
e4,
f8,
db,
b9,
c3,
e5,
fe,
0e,
10,
26,
1b,
22,
1b,
08,
fe,
02,
e5,
e4,
d5,
d4,
f1,
0c,
11,
24,
0f,
0a,
07,
f7,
e3,
f1,
f0,
d1,
d3,
dc,
01,
0d,
14,
18,
1c,
04,
f4,
e3,
e5,
cd,
b6,
b7,
a2,
be,
dd,
f4,
08,
0a,
13,
fc,
fa,
fc,
fb,
fa,
e7,
dc,
db,
e9,
15,
14,
0d,
16,
12,
ea,
c7,
bc,
ad,
9a,
a2,
ad,
c3,
e0,
ee,
f9,
fa,
ff,
fa,
ef,
04,
f2,
ef,
fc,
e8,
de,
d6,
f0,
06,
09,
ff,
1a,
fa,
d3,
b3,
a4,
95,
a6,
b5,
e1,
fd,
1a,
02,
f6,
ea,
ec,
f5,
fa,
f7,
f3,
ec,
f2,
f5,
f8,
f1,
fe,
04,
f0,
ff,
0f,
f2,
c9,
be,
c3,
bf,
d2,
f1,
1a,
24,
1e,
0f,
f4,
eb,
fa,
f7,
01,
f5,
fb,
01,
f4,
05,
1b,
15,
20,
fa,
f1,
04,
11,
e3,
da,
ce,
e3,
e6,
0a,
22,
2a,
24,
1e,
02,
f4,
f2,
ed,
f7,
02,
0b,
0f,
16,
0d,
1a,
1d,
16,
21,
1e,
fc,
0c,
18,
f4,
ff,
05,
fc,
11,
0c,
21,
34,
2b,
15,
01,
05,
01,
fb,
fd,
07,
11,
1b,
18,
18,
32,
2e,
22,
23,
23,
03,
0d,
1a,
0f,
15,
04,
10,
0a,
12,
2c,
24,
17,
0c,
f3,
00,
fc,
f1,
0a,
18,
1a,
0a,
0f,
19,
22,
1c,
17,
26,
2b,
00,
0b,
19,
28,
15,
f0,
e8,
ed,
fa,
00,
05,
10,
03,
01,
fa,
fe,
fa,
08,
13,
10,
fa,
fe,
11,
0a,
06,
13,
1f,
1e,
04,
0b,
1e,
2f,
0f,
ee,
eb,
e9,
ee,
f6,
fb,
f5,
05,
f2,
f5,
f8,
18,
18,
0f,
07,
ec,
f6,
0f,
0b,
05,
1b,
2d,
07,
f1,
12,
08,
12,
01,
f2,
eb,
e0,
f4,
f7,
fe,
0e,
13,
15,
16,
17,
18,
14,
07,
f4,
f9,
09,
f7,
f7,
f2,
ff,
19,
03,
07,
18,
0a,
17,
fc,
ed,
e8,
ef,
ef,
fd,
f5,
06,
1c,
0e,
20,
10,
0b,
f7,
fe,
f9,
f6,
f6,
ee,
f1,
dc,
03,
19,
f8,
ff,
ff,
11,
0f,
fb,
ec,
f1,
e4,
f2,
ef,
f5,
ff,
08,
10,
0d,
05,
0e,
f3,
f9,
f2,
ea,
e3,
e8,
e7,
ec,
10,
1d,
f9,
f9,
0a,
12,
12,
f9,
fc,
fc,
f1,
f7,
fc,
02,
fe,
fd,
08,
ff,
09,
0b,
fe,
ff,
f3,
ed,
e6,
e3,
df,
f1,
f2,
16,
fb,
0b,
08,
19,
19,
0c,
0c,
0b,
1d,
f7,
07,
0a,
0a,
06,
09,
f5,
fa,
fe,
f0,
02,
fb,
dc,
ec,
d9,
e3,
f6,
03,
15,
03,
fd,
08,
18,
1b,
28,
1b,
1e,
23,
11,
18,
0f,
11,
0d,
15,
16,
0a,
f6,
0b,
ee,
d0,
e7,
dd,
ea,
f3,
02,
00,
f6,
06,
06,
08,
fd,
1c,
1f,
17,
1c,
28,
24,
17,
27,
22,
24,
07,
10,
fd,
0a,
04,
e5,
ee,
dd,
d2,
dc,
e3,
f6,
eb,
f6,
06,
fc,
06,
05,
09,
f0,
f1,
ea,
09,
06,
01,
00,
06,
00,
04,
04,
07,
1a,
0e,
fd,
f9,
e8,
f2,
f9,
f9,
03,
0b,
00,
0b,
f6,
fc,
08,
fe,
10,
14,
0c,
fa,
fc,
08,
02,
08,
fc,
02,
03,
15,
15,
0d,
fa,
f7,
07,
ff,
01,
f6,
02,
06,
ff,
06,
08,
05,
f6,
f9,
01,
04,
04,
00,
09,
f9,
fb,
05,
ff,
fd,
fc,
07,
0a,
06,
02,
06,
fd,
01,
05,
fd,
02,
ff,
0a,
fc,
fc,
fa,
fe,
03,
fd,
f9,
00,
02,
f4,
f0,
ec,
e8,
fb,
f4,
0b,
0b,
f6,
ec,
f4,
ff,
00,
02,
07,
fc,
00,
09,
f7,
01,
04,
05,
04,
ee,
f5,
ee,
f3,
f2,
e2,
dd,
e8,
e2,
f5,
fc,
07,
15,
10,
ed,
f8,
06,
ed,
fa,
f3,
fe,
f7,
ef,
09,
09,
05,
04,
05,
f0,
fc,
fa,
ff,
fe,
02,
01,
fd,
fc,
05,
0a,
fc,
18,
16,
14,
07,
14,
0a,
fa,
fe,
ff,
06,
03,
ff,
f6,
02,
01,
1d,
25,
0c,
08,
f8,
0b,
0b,
04,
08,
00,
16,
0b,
0d,
0d,
0b,
02,
00,
0f,
04,
14,
01,
f0,
16,
fa,
09,
0b,
0a,
04,
10,
0b,
fe,
10,
08,
0e,
02,
f0,
f3,
ef,
f9,
02,
00,
fa,
ef,
f8,
f2,
f9,
fc,
04,
fa,
e4,
ef,
03,
16,
13,
fd,
07,
02,
12,
f0,
f3,
fd,
fc,
fe,
03,
06,
08,
fe,
04,
0f,
0d,
0f,
11,
13,
0f,
03,
06,
f7,
eb,
ff,
18,
08,
fb,
f9,
00,
06,
1d,
f3,
f3,
f6,
f8,
f2,
05,
0f,
11,
19,
18,
1c,
19,
0e,
06,
13,
12,
09,
0e,
06,
f7,
fd,
f8,
f4,
f9,
ed,
11,
03,
04,
fc,
f9,
05,
02,
0b,
f9,
0c,
04,
0d,
12,
07,
0a,
0d,
04,
0d,
02,
0d,
14,
05,
07,
fb,
08,
11,
15,
15,
17,
00,
07,
12,
07,
0c,
ff,
06,
02,
12,
0b,
09,
05,
16,
0b,
03,
fa,
f4,
0b,
03,
19,
1c,
f8,
12,
35,
20,
0a,
13,
14,
04,
0e,
0d,
ff,
0b,
06,
16,
18,
08,
08,
0e,
10,
26,
19,
15,
05,
08,
14,
17,
18,
1b,
11,
08,
27,
26,
07,
0e,
04,
1d,
24,
2c,
19,
14,
0e,
07,
0f,
12,
06,
0e,
35,
44,
2e,
1d,
16,
15,
0e,
19,
09,
09,
0e,
14,
23,
0f,
0f,
1c,
08,
13,
1e,
2f,
1d,
06,
08,
03,
03,
f1,
ee,
f4,
1e,
32,
26,
20,
0f,
1b,
08,
0d,
fd,
f0,
01,
e5,
00,
0d,
12,
0e,
11,
11,
18,
1f,
13,
05,
04,
fd,
e7,
df,
c7,
d8,
15,
25,
24,
17,
08,
03,
02,
04,
f3,
db,
d8,
da,
ec,
fd,
07,
f9,
16,
24,
1a,
04,
f5,
f9,
e2,
e6,
e7,
da,
c9,
e0,
06,
1f,
20,
06,
00,
0e,
03,
f8,
f8,
f2,
d3,
d0,
d7,
f2,
f9,
01,
08,
fe,
0b,
f3,
f1,
f2,
f4,
ea,
e7,
e5,
d5,
e2,
11,
1e,
06,
f8,
03,
fe,
01,
09,
03,
f9,
d8,
ce,
d3,
dd,
e7,
fd,
07,
19,
02,
0a,
fc,
f9,
fe,
ff,
fc,
e5,
e7,
e6,
0f,
13,
ff,
fd,
ee,
fe,
0b,
fd,
fc,
f3,
e2,
d4,
b8,
e2,
e5,
f8,
0d,
03,
13,
fa,
fe,
03,
04,
0a,
f2,
e3,
f1,
f3,
0f,
03,
f1,
ef,
fb,
03,
14,
04,
fa,
f4,
e2,
da,
ca,
02,
e5,
1d,
05,
06,
23,
01,
fc,
f5,
f3,
f4,
ef,
f9,
f3,
fa,
02,
03,
07,
f0,
01,
08,
09,
09,
03,
fa,
d4,
c9,
d1,
06,
0a,
fe,
0c,
13,
14,
fd,
fc,
01,
fd,
f8,
f0,
ef,
e4,
fb,
fa,
07,
01,
fb,
01,
0f,
1b,
05,
f6,
e2,
e4,
e2,
ed,
f6,
ff,
04,
00,
f8,
f5,
f9,
f8,
07,
f2,
f5,
ff,
f1,
ef,
ea,
fc,
04,
0a,
00,
02,
0a,
08,
fc,
ef,
e7,
e1,
f0,
f5,
06,
0d,
02,
fc,
f7,
e9,
03,
fc,
02,
0a,
fa,
fa,
ee,
01,
06,
f8,
05,
ff,
0e,
f8,
fe,
08,
08,
ec,
e6,
e6,
ee,
03,
e8,
f1,
0f,
13,
06,
f6,
09,
02,
0b,
04,
01,
f9,
00,
f4,
02,
ff,
fb,
fb,
04,
f8,
01,
f3,
f4,
e3,
f1,
fe,
ef,
ef,
f0,
f5,
f9,
02,
ed,
03,
23,
19,
16,
fe,
f6,
f5,
f7,
f5,
f9,
f7,
f7,
06,
03,
11,
fd,
f8,
fd,
f5,
f9,
01,
ec,
e9,
f8,
08,
00,
f6,
0a,
1d,
35,
37,
25,
12,
11,
00,
05,
04,
f9,
02,
05,
0c,
07,
03,
fb,
05,
08,
08,
f8,
f9,
ed,
e7,
f9,
fc,
07,
f8,
03,
00,
16,
29,
21,
26,
33,
36,
23,
25,
41,
32,
1e,
1e,
25,
2d,
38,
2e,
1d,
18,
14,
06,
12,
fa,
fc,
03,
08,
f7,
01,
fa,
03,
0f,
14,
17,
38,
38,
2b,
26,
28,
3b,
48,
44,
33,
4e,
4a,
38,
2f,
2e,
16,
02,
0b,
06,
fc,
f8,
fc,
0a,
00,
fa,
16,
03,
ff,
09,
12,
0b,
26,
06,
0a,
20,
32,
1d,
1f,
19,
29,
26,
0f,
0c,
0a,
10,
01,
06,
fd,
fd,
05,
00,
f5,
f9,
f6,
f8,
fa,
fc,
fc,
f5,
f6,
01,
f5,
f6,
0b,
11,
03,
fd,
03,
0a,
fd,
f7,
07,
04,
05,
ff,
05,
08,
07,
f7,
08,
04,
fb,
fc,
f2,
ee,
f0,
f0,
e4,
db,
d5,
d8,
fe,
ea,
02,
ef,
c8,
ca,
dc,
ec,
f3,
ec,
04,
04,
0b,
ff,
09,
07,
ea,
ef,
e9,
eb,
f2,
de,
e8,
e4,
db,
df,
d5,
f6,
f2,
f6,
fe,
f5,
f3,
d6,
dc,
e9,
e4,
f5,
08,
fe,
07,
09,
fa,
07,
ed,
dc,
ea,
0c,
f8,
f6,
f7,
e3,
ec,
f9,
eb,
ed,
f9,
f6,
08,
fc,
ef,
f5,
fa,
fb,
f2,
ed,
04,
16,
f5,
f9,
03,
04,
0c,
06,
03,
10,
0c,
fd,
fa,
ee,
f1,
ef,
ee,
eb,
ee,
f0,
04,
01,
17,
09,
07,
f7,
f2,
fd,
0d,
00,
f3,
ff,
04,
fe,
f8,
14,
0d,
04,
03,
f8,
f5,
e8,
e5,
e0,
e2,
e6,
eb,
f6,
14,
18,
24,
1e,
20,
1b,
1f,
1e,
0c,
08,
ee,
13,
07,
0f,
f2,
f2,
10,
fd,
fa,
fe,
fd,
fc,
e9,
dc,
ee,
02,
ff,
fb,
fe,
f7,
06,
0b,
11,
1f,
12,
19,
06,
01,
fc,
07,
fb,
09,
df,
ee,
1b,
1b,
08,
f6,
e4,
e4,
e3,
f7,
08,
04,
f7,
f2,
da,
e4,
fa,
14,
20,
1e,
1b,
02,
07,
f3,
f8,
fc,
f3,
f5,
eb,
02,
09,
0b,
fe,
f8,
e4,
ef,
fb,
03,
05,
0a,
f7,
d7,
cd,
e6,
0c,
1f,
13,
20,
1a,
04,
ec,
ec,
ec,
f8,
fe,
ef,
f2,
0b,
ff,
ff,
ff,
f6,
f5,
f6,
07,
14,
07,
f1,
e5,
d1,
df,
fc,
1b,
29,
2a,
24,
10,
f4,
c3,
d9,
e6,
ed,
ec,
f3,
fa,
16,
0b,
16,
02,
f5,
f8,
fa,
f5,
f9,
fa,
d1,
bc,
c3,
e5,
12,
32,
2a,
1e,
06,
01,
ee,
c4,
d5,
d0,
eb,
e8,
ef,
e1,
07,
fe,
12,
f6,
fb,
f7,
fe,
e9,
e1,
d2,
b5,
b5,
dd,
04,
1b,
17,
32,
1e,
fa,
ff,
e0,
c5,
da,
df,
e7,
f7,
fd,
ec,
ef,
fd,
04,
f1,
ef,
f5,
eb,
f4,
ec,
da,
d2,
d6,
f3,
02,
17,
1e,
1a,
15,
0e,
ff,
f0,
f4,
fd,
fd,
f6,
fe,
f8,
e6,
ed,
05,
06,
ff,
f0,
f8,
fa,
f0,
04,
f9,
ff,
f7,
07,
fd,
14,
17,
14,
13,
07,
f1,
f8,
00,
10,
22,
01,
f2,
05,
e4,
f7,
1c,
0c,
1a,
17,
07,
07,
0b,
15,
0e,
0e,
1a,
07,
10,
1e,
12,
15,
0c,
ff,
f5,
e9,
e2,
15,
1f,
15,
fe,
16,
08,
1a,
2d,
2c,
27,
14,
13,
09,
fb,
05,
25,
25,
16,
21,
1b,
23,
09,
12,
fe,
fe,
ea,
db,
e6,
fe,
28,
1a,
0b,
10,
1d,
14,
36,
1d,
1f,
15,
0b,
11,
fd,
20,
27,
27,
1b,
2b,
25,
24,
17,
11,
fa,
fd,
fb,
fe,
fa,
15,
37,
16,
fc,
0b,
2b,
0f,
23,
1f,
16,
20,
1e,
01,
0f,
1e,
25,
2e,
17,
29,
1b,
1b,
07,
08,
f7,
0c,
01,
f0,
f7,
04,
08,
08,
f2,
07,
15,
29,
2a,
18,
21,
18,
05,
ff,
f2,
fa,
12,
1d,
1a,
20,
1e,
08,
0c,
05,
f3,
fe,
ed,
f5,
f9,
18,
13,
0a,
04,
f1,
f9,
23,
18,
23,
24,
11,
07,
fd,
e3,
eb,
f7,
f9,
0f,
18,
0c,
0a,
10,
fe,
00,
01,
f4,
fc,
f2,
16,
20,
f4,
f7,
ec,
0b,
31,
21,
15,
24,
15,
05,
f1,
ea,
df,
e4,
ea,
fb,
fc,
0b,
0a,
09,
12,
0c,
fb,
f1,
f7,
06,
04,
07,
fc,
fb,
1d,
1b,
1a,
18,
18,
11,
0d,
05,
fb,
e4,
eb,
de,
ea,
e6,
ef,
fc,
0b,
04,
0a,
0c,
02,
07,
0e,
09,
ea,
f9,
06,
ff,
ff,
2d,
1d,
09,
0b,
01,
0c,
f6,
f1,
fa,
f7,
ec,
f4,
e9,
fb,
fb,
0b,
10,
10,
0e,
16,
0e,
fb,
00,
f4,
f5,
05,
00,
04,
1e,
1d,
0a,
f9,
12,
0b,
fb,
f8,
f6,
f8,
ef,
ed,
f1,
e8,
fb,
f9,
15,
1e,
1e,
2b,
1e,
0c,
fa,
f4,
04,
f8,
03,
0b,
14,
0a,
09,
f0,
09,
fd,
03,
f6,
ff,
00,
fd,
e6,
ee,
fa,
f4,
03,
08,
08,
21,
21,
1c,
0e,
02,
19,
0d,
fb,
03,
fc,
16,
e3,
e9,
ef,
02,
f5,
f8,
01,
f7,
f1,
03,
f7,
01,
f7,
fa,
eb,
ee,
fa,
0c,
f6,
ff,
f6,
e4,
19,
08,
0a,
00,
02,
05,
fb,
16,
01,
06,
f6,
ee,
e8,
04,
f2,
fb,
f6,
fd,
f1,
f1,
e6,
e3,
ed,
ee,
fe,
f3,
09,
f6,
f8,
06,
02,
07,
04,
02,
0a,
f5,
08,
f6,
07,
fc,
fb,
e4,
f9,
fa,
e9,
f3,
f4,
de,
e6,
e3,
ea,
f4,
03,
02,
e2,
f8,
fb,
05,
0a,
fd,
fc,
fa,
08,
fa,
f8,
08,
09,
01,
f7,
fb,
fe,
f6,
f8,
0a,
02,
07,
f6,
f9,
f7,
fd,
fc,
06,
f9,
01,
07,
07,
09,
0a,
01,
fd,
00,
00,
fb,
f8,
ec,
f2,
03,
fb,
ee,
de,
e2,
f4,
05,
07,
fd,
ef,
e1,
ef,
f1,
f8,
ec,
fc,
08,
0a,
07,
06,
fb,
03,
f9,
ea,
02,
f9,
eb,
f6,
0b,
0c,
19,
fd,
fb,
01,
0c,
12,
1c,
19,
19,
13,
17,
05,
04,
0e,
0a,
fa,
09,
f8,
04,
04,
f9,
f4,
e6,
f7,
f5,
f2,
09,
07,
fc,
ef,
09,
0a,
f9,
ff,
05,
0d,
ff,
0c,
23,
1e,
08,
12,
1d,
0a,
0b,
0b,
f6,
ea,
ed,
f2,
e1,
f7,
fa,
ea,
00,
ff,
fd,
0d,
06,
07,
15,
1c,
15,
0e,
0b,
08,
11,
0f,
2c,
20,
2c,
f8,
01,
fb,
fd,
f7,
f4,
e8,
ee,
e8,
fb,
ff,
03,
11,
13,
0c,
05,
0b,
0b,
18,
19,
18,
15,
0b,
18,
16,
2d,
21,
1a,
0b,
0b,
fe,
f1,
fa,
ea,
0a,
fb,
eb,
f1,
fd,
f5,
fd,
f9,
06,
ee,
fb,
00,
fa,
f6,
fe,
0a,
01,
ff,
ff,
1a,
1f,
29,
18,
05,
fc,
ee,
ff,
f5,
f5,
fc,
f7,
ee,
fd,
f5,
f1,
fe,
f4,
fa,
e5,
ea,
ef,
f0,
fe,
f4,
f2,
fb,
f6,
0b,
08,
29,
22,
11,
e8,
06,
f6,
e3,
e1,
f6,
e9,
ea,
fc,
ff,
04,
f7,
00,
f8,
f1,
e2,
f8,
fe,
e9,
fa,
fc,
ee,
f5,
ff,
19,
30,
04,
fa,
ff,
ee,
f7,
dd,
e0,
ec,
f8,
f4,
f3,
fb,
fe,
0f,
0b,
e4,
d7,
da,
e3,
e8,
e3,
e1,
e8,
eb,
ea,
ed,
09,
18,
15,
0d,
fb,
f1,
f2,
e0,
ef,
f8,
fa,
fc,
0d,
14,
0d,
12,
06,
d0,
c2,
d2,
e5,
e4,
dc,
eb,
dd,
e8,
dc,
ed,
f6,
1b,
22,
f8,
ff,
fd,
f4,
ee,
f1,
0b,
0d,
fb,
08,
14,
09,
f9,
e3,
c0,
c9,
d5,
eb,
ea,
f3,
fb,
dc,
d9,
d6,
cf,
d9,
15,
03,
04,
03,
f1,
e3,
ea,
fd,
04,
0a,
05,
fc,
01,
16,
0f,
f9,
e0,
d5,
e8,
f1,
f4,
fd,
f9,
ef,
ee,
d6,
bc,
cd,
06,
fd,
fe,
fe,
f3,
ef,
ed,
f2,
fe,
fc,
0a,
08,
14,
1d,
22,
1d,
0a,
f2,
fd,
fa,
fd,
07,
08,
01,
fa,
ec,
d8,
e9,
06,
0f,
0f,
07,
fc,
fe,
0a,
17,
16,
0d,
19,
14,
19,
25,
27,
20,
0c,
01,
fe,
03,
03,
01,
04,
f9,
f3,
e3,
f1,
06,
18,
32,
10,
0d,
f4,
fb,
10,
1c,
09,
19,
10,
16,
0c,
17,
1b,
1e,
10,
09,
1c,
17,
0d,
0c,
05,
f5,
e7,
e3,
fb,
00,
21,
21,
20,
f0,
ee,
ed,
05,
fd,
02,
0f,
f3,
fd,
04,
06,
03,
10,
14,
18,
1b,
24,
24,
0b,
ff,
f7,
05,
f6,
fa,
14,
39,
30,
2d,
fc,
f6,
00,
15,
03,
00,
0f,
fc,
f7,
fa,
07,
07,
0f,
14,
19,
15,
22,
09,
02,
f7,
06,
0a,
07,
05,
0a,
2b,
13,
fe,
05,
ec,
f4,
05,
16,
0b,
07,
12,
fd,
f4,
f7,
f9,
0c,
20,
18,
1b,
0e,
0b,
04,
06,
0c,
0f,
0a,
1b,
23,
36,
08,
0b,
fe,
f4,
fa,
f1,
15,
07,
01,
fe,
02,
f7,
fc,
0f,
0a,
1b,
17,
0c,
12,
0c,
0a,
07,
03,
09,
02,
1d,
26,
2b,
29,
ff,
fe,
f4,
0d,
fa,
14,
fc,
00,
04,
07,
fe,
fb,
15,
06,
10,
fc,
0e,
09,
ff,
15,
14,
07,
12,
14,
16,
1a,
22,
08,
0d,
f9,
f3,
f3,
fc,
0a,
12,
f3,
07,
09,
0d,
11,
0b,
0b,
06,
fd,
fc,
fd,
0c,
06,
0e,
09,
17,
21,
1c,
1c,
13,
00,
fd,
ff,
f3,
07,
10,
14,
fc,
f7,
00,
00,
0a,
fd,
f7,
ff,
f1,
f8,
fc,
fd,
01,
11,
06,
1a,
1e,
19,
19,
1f,
1b,
09,
f4,
01,
06,
fb,
f6,
02,
f2,
ec,
f4,
f0,
f8,
f4,
f7,
f0,
e8,
f9,
e9,
e9,
fd,
0d,
0c,
27,
1c,
19,
2a,
25,
14,
fc,
0b,
fb,
01,
f3,
e3,
dd,
ef,
ec,
ec,
ea,
dc,
de,
e7,
e3,
e9,
f8,
f5,
fd,
f3,
06,
09,
1c,
10,
22,
26,
20,
10,
0e,
05,
f7,
00,
10,
f5,
f0,
f0,
f2,
e1,
d4,
cc,
d6,
ed,
f8,
f7,
f5,
02,
ec,
f2,
f2,
e5,
02,
f8,
19,
14,
04,
0c,
12,
fa,
00,
f8,
05,
09,
06,
fe,
f1,
f4,
f6,
d9,
f6,
f9,
08,
08,
05,
f4,
ec,
eb,
e8,
e6,
02,
f3,
02,
08,
f0,
08,
ff,
fe,
fa,
fc,
fa,
fb,
06,
03,
f9,
f9,
f1,
fd,
0a,
ff,
02,
f4,
f1,
f0,
ed,
e4,
db,
eb,
0a,
f5,
fc,
f3,
f7,
fa,
f6,
f7,
fb,
02,
0b,
fa,
01,
f7,
fb,
fd,
06,
09,
03,
fb,
fc,
fd,
01,
07,
fa,
ff,
01,
0b,
ff,
fd,
fb,
08,
0a,
02,
f6,
fa,
f9,
05,
fb,
fb,
f0,
01,
f3,
f5,
f2,
f0,
e8,
f3,
db,
ea,
08,
00,
0b,
02,
d0,
e2,
e6,
fa,
ec,
e7,
00,
02,
07,
06,
f8,
09,
ef,
e6,
da,
e6,
e5,
ed,
ee,
f1,
01,
03,
00,
f7,
0d,
f7,
04,
03,
fe,
f8,
0b,
fe,
f0,
f5,
15,
fe,
05,
04,
00,
f7,
f3,
e9,
e8,
ee,
e7,
f6,
e9,
ef,
ee,
00,
f8,
f9,
00,
f3,
f5,
f9,
f0,
ff,
02,
02,
fb,
fb,
08,
0f,
05,
02,
07,
ff,
f1,
e2,
fe,
f8,
fd,
f4,
ff,
fd,
f8,
ff,
f7,
02,
fd,
f7,
0c,
05,
14,
0b,
fd,
0a,
15,
16,
f6,
ff,
f3,
01,
ff,
06,
f9,
06,
0b,
fd,
0e,
18,
fd,
0a,
07,
f9,
04,
fc,
fd,
f1,
f5,
03,
16,
08,
0d,
0a,
0a,
1d,
17,
ff,
ee,
f8,
03,
0a,
16,
16,
21,
27,
12,
0a,
f5,
fd,
fb,
f2,
fb,
f8,
f1,
db,
de,
d5,
d9,
e2,
f4,
0a,
01,
15,
06,
f0,
0f,
07,
0b,
0e,
15,
19,
29,
1e,
1c,
10,
00,
00,
fa,
06,
04,
03,
e1,
da,
cf,
e4,
e2,
eb,
fb,
f2,
03,
09,
05,
fe,
16,
07,
14,
10,
23,
1c,
11,
0a,
08,
f6,
ea,
ec,
04,
ff,
09,
fe,
fb,
e7,
df,
ee,
fc,
02,
00,
fa,
fe,
f4,
e2,
f8,
00,
fc,
0d,
04,
33,
0d,
00,
09,
ee,
d6,
d7,
f4,
fe,
03,
0d,
0a,
f7,
ea,
f9,
0b,
14,
10,
0e,
08,
f6,
f9,
f3,
f3,
f3,
ed,
1e,
03,
19,
07,
f0,
f9,
e7,
e3,
e3,
ef,
01,
11,
0a,
11,
e0,
d8,
f7,
24,
17,
21,
0d,
09,
01,
e0,
dd,
f2,
e1,
fc,
0f,
17,
10,
fa,
df,
d5,
d4,
dc,
e8,
f8,
06,
10,
0c,
f7,
c2,
c4,
fa,
16,
19,
06,
ec,
f5,
e2,
e3,
e4,
e8,
e4,
f4,
07,
0b,
10,
ff,
ce,
d9,
dc,
e1,
f9,
04,
0b,
27,
24,
f0,
bf,
d1,
f5,
ff,
fc,
ed,
ef,
e6,
f2,
de,
e8,
f5,
f9,
f9,
fa,
03,
1d,
fa,
d4,
d9,
fa,
f4,
0b,
0e,
17,
24,
0b,
eb,
d1,
cd,
f3,
fd,
f6,
e7,
e1,
f0,
fa,
f5,
16,
00,
04,
0b,
10,
04,
17,
eb,
e8,
01,
00,
09,
15,
10,
1e,
22,
fd,
dd,
d3,
e8,
f5,
09,
fc,
ff,
fa,
02,
09,
12,
1c,
0f,
22,
12,
07,
ff,
15,
05,
f9,
1c,
14,
19,
13,
18,
08,
02,
03,
db,
ee,
f4,
1b,
17,
19,
14,
f8,
0d,
18,
1c,
27,
21,
2f,
1c,
06,
e6,
f9,
fb,
05,
0a,
16,
17,
17,
0b,
09,
f4,
f6,
ee,
02,
1e,
27,
2b,
23,
17,
23,
21,
1b,
17,
26,
36,
35,
0e,
09,
ee,
19,
fa,
1c,
0e,
07,
09,
10,
05,
f9,
e3,
eb,
fd,
15,
1d,
1f,
20,
2d,
21,
25,
2b,
23,
0c,
19,
28,
19,
ff,
f5,
01,
11,
0e,
1e,
02,
0a,
03,
0c,
02,
e6,
ef,
f1,
10,
18,
1b,
15,
1a,
1e,
07,
01,
10,
10,
ff,
20,
1f,
1e,
0c,
01,
0d,
0b,
0e,
14,
04,
ff,
0f,
f7,
f3,
ff,
07,
0b,
0e,
1c,
0b,
0a,
05,
03,
fe,
ff,
0b,
fa,
f3,
ff,
0f,
31,
0b,
04,
0a,
16,
1b,
11,
04,
f0,
f8,
ff,
fb,
01,
17,
16,
0d,
00,
06,
f1,
f3,
fe,
f9,
fb,
fb,
ec,
f2,
fd,
ff,
06,
0e,
f7,
fd,
08,
1c,
04,
03,
e3,
f4,
04,
fb,
0b,
16,
03,
ff,
fd,
fe,
fe,
f1,
fa,
fa,
f0,
fc,
fc,
05,
01,
00,
0e,
03,
fc,
02,
09,
0e,
10,
06,
ef,
fc,
f9,
11,
03,
0c,
f8,
f5,
f6,
f3,
f7,
fe,
f3,
0c,
00,
05,
fd,
00,
06,
01,
fb,
02,
fe,
ff,
04,
00,
07,
02,
08,
10,
02,
02,
0a,
0f,
02,
ed,
f4,
e8,
f3,
fb,
ef,
fb,
ee,
04,
f6,
fd,
fe,
13,
05,
fc,
0a,
08,
ed,
03,
f7,
0e,
07,
f4,
f8,
f3,
ee,
ee,
f7,
f0,
f7,
ea,
f6,
f4,
ea,
e7,
df,
fc,
fb,
e9,
16,
16,
ff,
0b,
07,
fa,
f7,
08,
10,
fa,
f6,
ee,
e8,
f0,
e6,
f1,
ef,
e9,
f0,
f4,
e4,
d9,
d2,
c9,
d0,
dc,
dd,
f9,
04,
f9,
0e,
fb,
04,
fb,
fc,
fc,
f9,
ed,
e5,
ed,
f3,
f3,
f1,
ea,
f4,
ea,
e1,
ed,
e1,
e0,
e6,
ee,
da,
ec,
f9,
f3,
17,
12,
07,
02,
fc,
08,
08,
f8,
1f,
0d,
f6,
f6,
f0,
ed,
f7,
f7,
eb,
f9,
e1,
06,
0d,
08,
ee,
fd,
f7,
ed,
01,
0f,
fa,
07,
01,
04,
ff,
f7,
06,
f7,
f7,
03,
fc,
05,
06,
f6,
fb,
f7,
fe,
02,
07,
0b,
f9,
f7,
05,
08,
04,
f5,
fd,
f9,
f5,
05,
02,
02,
0a,
fa,
06,
05,
02,
f8,
e8,
ea,
ec,
f9,
e6,
eb,
e2,
e4,
e9,
ef,
f1,
fa,
e2,
ed,
f2,
04,
02,
fb,
04,
00,
06,
09,
04,
04,
03,
f7,
f3,
f2,
e5,
ec,
e8,
da,
de,
d6,
cb,
c3,
b8,
bc,
d6,
e3,
f3,
09,
02,
f5,
e6,
f1,
f9,
f5,
fe,
0b,
00,
05,
f5,
f4,
fd,
fd,
ea,
dd,
eb,
d1,
c7,
d2,
d9,
c3,
e9,
ea,
df,
ef,
fe,
0e,
14,
0c,
00,
08,
00,
f2,
ff,
f8,
02,
f6,
06,
13,
f3,
e9,
f5,
f8,
d9,
e0,
f0,
fe,
fe,
00,
f5,
06,
18,
18,
1c,
16,
10,
12,
0f,
27,
28,
26,
04,
fa,
02,
fd,
03,
e3,
ec,
f1,
e5,
fb,
fe,
fd,
0e,
18,
16,
fc,
ed,
eb,
f2,
05,
f9,
fc,
00,
f8,
0e,
1c,
1f,
27,
1c,
f7,
f6,
03,
fd,
e4,
f0,
06,
f5,
0c,
12,
16,
0c,
09,
07,
07,
01,
fa,
fc,
0f,
0e,
0f,
0d,
0b,
1a,
07,
12,
10,
13,
07,
00,
06,
f2,
d7,
00,
0f,
09,
0b,
17,
1b,
14,
03,
fc,
f6,
fd,
14,
0c,
15,
17,
0a,
08,
01,
07,
0a,
12,
18,
1c,
ff,
00,
ec,
f9,
f3,
eb,
1b,
1a,
1e,
1f,
1d,
05,
f6,
f5,
f3,
fd,
0c,
08,
0c,
0d,
f9,
f2,
0d,
ff,
11,
18,
1f,
16,
0d,
07,
ef,
f8,
ea,
f4,
07,
19,
1b,
28,
21,
01,
03,
f5,
df,
d8,
e1,
fd,
f7,
ed,
e3,
f5,
fc,
08,
03,
0e,
18,
01,
10,
fb,
e9,
db,
f7,
05,
f7,
0b,
0c,
22,
29,
0c,
f5,
e4,
b9,
b2,
d6,
d4,
e7,
d4,
db,
e8,
e0,
f1,
e3,
e9,
0a,
21,
0b,
fa,
e9,
d5,
df,
f0,
11,
21,
0d,
1a,
28,
23,
05,
fe,
ce,
ce,
f8,
04,
f0,
ee,
d6,
eb,
e6,
ed,
ef,
df,
04,
1f,
0e,
01,
e7,
d2,
d9,
f2,
09,
1d,
25,
1c,
23,
25,
2b,
1a,
15,
14,
1c,
13,
02,
fd,
f5,
09,
0b,
13,
fb,
e2,
f4,
04,
fa,
f5,
ee,
e8,
e5,
fd,
20,
0f,
24,
28,
27,
2b,
3a,
31,
32,
1d,
17,
1f,
0f,
0b,
0e,
0b,
1f,
19,
06,
ef,
d6,
e8,
f0,
15,
f2,
e8,
e2,
fe,
18,
10,
22,
2b,
35,
32,
3e,
37,
2f,
2c,
25,
18,
15,
0b,
01,
04,
12,
0e,
09,
f3,
e0,
e1,
f4,
fd,
17,
0b,
ea,
ee,
f1,
f0,
f8,
1a,
34,
3d,
46,
50,
3d,
32,
22,
1c,
1d,
08,
f9,
ea,
f1,
0c,
12,
ed,
df,
f8,
e4,
f5,
0f,
05,
e2,
cc,
d4,
d3,
e0,
f7,
19,
25,
3e,
47,
43,
1f,
26,
12,
08,
02,
f6,
ee,
ee,
05,
0d,
02,
e3,
ec,
e2,
f5,
09,
07,
e8,
c2,
c0,
be,
c7,
c3,
d6,
e9,
f7,
fa,
0f,
0d,
0b,
0b,
00,
07,
f9,
eb,
ff,
f4,
0e,
03,
c4,
e2,
f2,
07,
03,
09,
e4,
e0,
df,
be,
b2,
a0,
b1,
b0,
c2,
c2,
d5,
f2,
fc,
fe,
ff,
f2,
04,
08,
03,
00,
09,
f6,
d6,
ee,
ff,
09,
ed,
f3,
06,
ef,
e8,
e1,
a8,
9d,
a5,
b2,
b5,
a2,
b1,
d9,
f5,
f5,
03,
00,
07,
1b,
0b,
f3,
01,
05,
de,
fc,
04,
fa,
fa,
00,
02,
10,
06,
e1,
d6,
de,
d2,
cc,
d6,
c5,
e6,
df,
f3,
f9,
0b,
15,
0e,
14,
13,
11,
18,
06,
f6,
f0,
0d,
04,
01,
17,
0f,
1c,
12,
11,
08,
02,
03,
f8,
f6,
04,
f3,
f3,
06,
03,
01,
14,
03,
19,
0e,
1f,
13,
03,
01,
ee,
05,
07,
ec,
0d,
22,
2d,
1f,
01,
06,
1a,
1d,
0b,
18,
08,
02,
fe,
fe,
f4,
08,
17,
0b,
12,
03,
0c,
0c,
04,
fd,
fb,
06,
f5,
07,
0c,
26,
3a,
41,
27,
1a,
1f,
20,
20,
27,
1e,
11,
07,
f6,
fb,
fd,
08,
0e,
14,
fa,
fb,
1f,
fe,
ef,
09,
0b,
fd,
02,
13,
3f,
2f,
2e,
24,
26,
2a,
34,
23,
18,
05,
07,
03,
f7,
f2,
f8,
f8,
0f,
1e,
1a,
21,
24,
f4,
eb,
ea,
04,
00,
f9,
13,
10,
1f,
1f,
23,
1c,
28,
23,
24,
23,
2a,
18,
0f,
0f,
04,
fb,
07,
09,
1f,
2d,
2d,
3b,
20,
fd,
ec,
01,
08,
07,
fa,
0c,
0b,
1b,
19,
0b,
fc,
03,
fe,
02,
03,
06,
f5,
f9,
fd,
f0,
eb,
eb,
12,
13,
fd,
13,
fa,
f5,
0a,
ff,
fc,
06,
06,
f7,
00,
fd,
08,
0d,
fd,
ff,
f4,
0a,
04,
ed,
fa,
f5,
df,
e1,
e2,
e7,
01,
f0,
00,
f8,
00,
f6,
07,
fb,
0a,
0a,
03,
07,
f9,
fb,
07,
fd,
f5,
01,
ff,
08,
f8,
ed,
fe,
fc,
04,
fc,
02,
f9,
f5,
ff,
05,
f9,
08,
05,
05,
03,
f5,
07,
f6,
01,
09,
fa,
f6,
ed,
e6,
dd,
dc,
dc,
e7,
e8,
12,
02,
03,
e2,
ea,
db,
d2,
fc,
fd,
fc,
f7,
00,
fc,
05,
03,
08,
f6,
01,
f6,
d4,
d2,
d5,
d0,
e3,
eb,
e3,
eb,
e7,
e4,
e2,
e5,
e4,
db,
ed,
ea,
e5,
eb,
00,
06,
ff,
09,
02,
03,
fc,
ff,
03,
f1,
0d,
05,
1a,
17,
00,
14,
08,
11,
09,
10,
14,
06,
0b,
14,
ff,
fe,
fc,
f4,
11,
05,
fc,
f8,
04,
fc,
02,
18,
13,
0a,
1a,
07,
0f,
1e,
16,
17,
18,
24,
12,
0e,
1c,
08,
f7,
fe,
f2,
ed,
f1,
ef,
e1,
ff,
0e,
16,
fc,
f6,
f6,
0b,
0d,
0c,
12,
0a,
10,
04,
fd,
f8,
14,
0d,
15,
12,
17,
03,
04,
f4,
fa,
f7,
fb,
e7,
df,
dd,
0b,
01,
f7,
fa,
04,
f2,
07,
fb,
f6,
fd,
05,
08,
0e,
07,
04,
0b,
15,
13,
0b,
0b,
0f,
05,
05,
f6,
f3,
df,
ee,
eb,
18,
04,
f3,
00,
13,
eb,
fc,
11,
0b,
01,
fc,
04,
13,
11,
ff,
14,
0f,
25,
2c,
1d,
0f,
05,
f7,
f5,
00,
ec,
f9,
07,
09,
f0,
f3,
01,
ea,
da,
f8,
02,
0f,
06,
15,
15,
09,
0f,
0a,
04,
11,
20,
1a,
10,
06,
07,
03,
f9,
06,
14,
04,
08,
06,
0e,
15,
e9,
e8,
ed,
fe,
0f,
19,
27,
13,
0a,
03,
05,
f2,
f3,
f6,
07,
1b,
01,
fc,
02,
04,
10,
0b,
19,
19,
11,
21,
0d,
f4,
df,
e5,
ea,
fc,
0f,
10,
1f,
08,
fe,
f2,
f6,
f5,
ec,
0b,
18,
0a,
fb,
f6,
0e,
09,
12,
13,
11,
25,
16,
18,
0e,
10,
e9,
d6,
ea,
08,
1e,
09,
13,
f9,
fc,
ee,
f0,
01,
16,
29,
35,
2c,
00,
17,
07,
0b,
0c,
ff,
fb,
18,
1d,
18,
1a,
0b,
f1,
dd,
d8,
09,
06,
11,
f2,
f2,
f3,
fc,
fd,
0c,
1c,
30,
3e,
34,
13,
1e,
06,
0d,
0c,
ed,
fb,
fa,
fc,
18,
10,
fb,
fd,
f3,
d7,
ff,
f8,
ed,
f1,
ee,
f4,
fd,
f7,
02,
1f,
2d,
32,
2e,
21,
15,
12,
0d,
f1,
e5,
dc,
eb,
e2,
ff,
14,
0e,
ee,
f4,
e7,
fb,
f4,
d7,
db,
db,
ea,
e9,
f6,
01,
1b,
23,
33,
17,
0f,
0c,
04,
fe,
ea,
f8,
df,
d8,
ea,
05,
0d,
0d,
fa,
05,
05,
fb,
f0,
d8,
ea,
df,
e2,
f1,
ea,
06,
10,
21,
20,
03,
ff,
05,
03,
0e,
f6,
f1,
f9,
e8,
f4,
fe,
f3,
e5,
01,
10,
16,
09,
07,
f0,
e1,
ed,
ee,
eb,
ec,
fe,
12,
12,
05,
fc,
fd,
fd,
0f,
fe,
03,
e9,
02,
0c,
fd,
e6,
d7,
fb,
ff,
0e,
00,
13,
01,
08,
f9,
03,
fc,
ed,
e4,
f3,
02,
fd,
e4,
f2,
f4,
fa,
00,
0e,
fd,
01,
ff,
0e,
f4,
c1,
e6,
f6,
f6,
10,
09,
1c,
10,
09,
1f,
09,
01,
02,
01,
fc,
f5,
f8,
ed,
eb,
03,
00,
fe,
17,
0d,
01,
05,
01,
ec,
c1,
da,
f9,
f9,
e9,
f8,
11,
0a,
22,
24,
02,
01,
f5,
f9,
e9,
e6,
e8,
ef,
f1,
03,
0a,
17,
09,
11,
0f,
0d,
16,
eb,
d4,
d5,
ea,
0b,
04,
f5,
06,
0a,
0f,
1a,
20,
12,
f9,
f0,
eb,
ef,
fc,
ef,
f4,
fb,
0d,
0b,
16,
13,
11,
11,
04,
ea,
ce,
e4,
05,
ff,
ff,
12,
00,
03,
fe,
19,
0f,
00,
ff,
f6,
00,
ef,
05,
fa,
fc,
08,
0d,
07,
0e,
10,
f8,
f4,
f1,
cc,
d8,
d7,
f4,
03,
ff,
09,
10,
05,
ef,
0a,
00,
f4,
f3,
f7,
fd,
fd,
fe,
0b,
0d,
03,
fb,
fa,
fa,
0b,
f1,
05,
ed,
dc,
f3,
d5,
f3,
f7,
f8,
16,
28,
15,
f5,
02,
08,
08,
f6,
f7,
06,
0a,
1a,
11,
0f,
15,
00,
04,
fa,
04,
01,
fa,
05,
f6,
eb,
f7,
f9,
f8,
07,
05,
22,
11,
f6,
0d,
0c,
16,
20,
22,
18,
18,
1d,
0f,
20,
26,
19,
0d,
11,
04,
05,
03,
12,
f3,
ef,
fc,
fc,
f9,
fe,
15,
ed,
ed,
fe,
07,
19,
27,
2a,
3c,
2f,
45,
3d,
27,
20,
22,
24,
20,
39,
23,
16,
f1,
fb,
0c,
ef,
eb,
01,
0a,
0b,
fd,
f7,
08,
11,
03,
17,
03,
03,
19,
0c,
0f,
13,
17,
0c,
1a,
14,
0e,
16,
14,
12,
09,
0a,
0c,
fa,
0a,
04,
01,
02,
07,
fe,
f9,
e8,
f9,
0a,
05,
f7,
ef,
fb,
f9,
dc,
05,
f2,
db,
da,
ec,
f4,
07,
f8,
00,
e2,
00,
f9,
0a,
f6,
fb,
fb,
09,
01,
0b,
f7,
ff,
02,
f9,
f5,
0a,
fd,
02,
14,
14,
0f,
f6,
f9,
fd,
08,
f6,
08,
fd,
05,
fe,
00,
05,
05,
fc,
fd,
05,
0a,
05,
f8,
f2,
e7,
fe,
02,
f2,
f9,
ea,
fb,
00,
fc,
f5,
e5,
ea,
de,
e6,
f6,
f7,
f2,
fa,
09,
06,
fa,
04,
04,
03,
04,
0d,
fb,
e9,
ec,
e6,
e5,
e2,
d9,
d0,
d6,
c9,
d4,
d9,
df,
cd,
d8,
cd,
e0,
df,
de,
ef,
f2,
f9,
06,
f7,
fc,
f7,
fd,
04,
fa,
e5,
e5,
dd,
d4,
d1,
cf,
ce,
c7,
c6,
cd,
d2,
e1,
cc,
cb,
d9,
e9,
d8,
dc,
ef,
05,
08,
07,
f8,
01,
fa,
12,
e3,
d5,
cf,
d4,
cc,
c0,
cc,
c8,
c0,
c5,
c3,
d0,
d1,
cb,
d2,
c7,
cd,
e4,
f7,
fe,
0d,
0e,
01,
e7,
fa,
03,
f3,
f1,
eb,
f5,
f6,
ee,
f3,
e6,
f9,
fe,
fa,
ee,
e6,
e7,
da,
e3,
e3,
d2,
e2,
f3,
ee,
ed,
00,
0e,
05,
ee,
fb,
ea,
0c,
14,
f5,
04,
f7,
f8,
f4,
f3,
01,
13,
03,
08,
12,
1c,
18,
19,
18,
12,
02,
0d,
05,
08,
ed,
ea,
f0,
fb,
0b,
f1,
11,
1f,
e5,
e7,
ff,
f9,
fd,
14,
19,
17,
18,
23,
14,
29,
27,
2b,
2e,
24,
13,
10,
03,
02,
ed,
f2,
ea,
0a,
09,
09,
19,
09,
ff,
fd,
fc,
07,
0d,
02,
13,
10,
19,
07,
13,
13,
19,
25,
22,
0a,
19,
0a,
fe,
0f,
fe,
f2,
db,
ef,
0b,
08,
ff,
0e,
ff,
0a,
10,
f6,
fb,
ff,
0d,
11,
1f,
1d,
13,
14,
1f,
18,
1a,
19,
15,
fc,
f5,
07,
0d,
f9,
01,
15,
11,
0c,
08,
0a,
05,
10,
01,
ff,
0d,
0c,
1e,
15,
16,
1d,
27,
14,
11,
25,
20,
05,
0a,
0f,
05,
03,
06,
11,
07,
08,
19,
19,
10,
12,
08,
04,
11,
16,
09,
12,
0b,
16,
10,
18,
10,
02,
0a,
1a,
21,
16,
0c,
08,
0f,
00,
00,
10,
25,
03,
1e,
0d,
2c,
17,
16,
1f,
1d,
16,
0f,
12,
0b,
fe,
ee,
f6,
fd,
ee,
f1,
0b,
23,
15,
0e,
06,
0d,
fc,
e7,
07,
23,
0c,
f5,
13,
17,
19,
23,
0a,
12,
20,
06,
07,
02,
f1,
ee,
ef,
e7,
e9,
ed,
11,
13,
08,
19,
0d,
0f,
09,
fb,
15,
36,
17,
fc,
f9,
11,
03,
28,
18,
09,
24,
0f,
04,
02,
f0,
ea,
ec,
db,
da,
f6,
15,
14,
23,
13,
18,
07,
18,
0e,
10,
28,
0e,
fc,
f3,
ed,
f3,
14,
0e,
04,
0f,
06,
05,
03,
08,
f0,
dc,
d1,
ed,
06,
18,
25,
13,
08,
13,
04,
01,
0c,
0a,
12,
0e,
0c,
03,
ec,
e0,
fd,
04,
07,
03,
17,
fe,
09,
f8,
f4,
e4,
f0,
02,
05,
1e,
1a,
05,
0c,
04,
f1,
ec,
f9,
fd,
20,
10,
ff,
f6,
e8,
e3,
f9,
06,
f8,
f9,
00,
05,
16,
0a,
09,
ef,
05,
06,
01,
1c,
05,
ef,
f1,
01,
f6,
f0,
fc,
06,
17,
18,
1a,
00,
e2,
ea,
f8,
fd,
f0,
ff,
fa,
f8,
fd,
fe,
f7,
f6,
00,
12,
f7,
f8,
ec,
eb,
f9,
f2,
f3,
e4,
f9,
0a,
05,
fd,
f6,
1a,
f4,
e0,
fe,
f3,
f2,
e9,
f9,
ee,
e8,
fb,
00,
07,
02,
f9,
e4,
f9,
f1,
fa,
fa,
d9,
db,
f2,
03,
1b,
19,
f9,
f9,
10,
ed,
df,
f7,
ec,
f1,
e2,
f0,
df,
e2,
ee,
ff,
fc,
f0,
ef,
e6,
e6,
d8,
ee,
d9,
e0,
d8,
ed,
0e,
11,
10,
07,
fb,
ed,
e9,
df,
fa,
09,
f4,
f1,
ea,
f6,
f7,
fd,
f8,
f3,
ef,
ec,
fc,
ed,
e5,
e0,
d5,
e6,
dc,
e2,
20,
12,
00,
01,
ff,
fe,
e4,
dc,
e5,
02,
09,
0c,
16,
08,
06,
fb,
0a,
f7,
ff,
f6,
f4,
ef,
e0,
e0,
e7,
eb,
fe,
f6,
1a,
0e,
fe,
fc,
00,
05,
e4,
eb,
f3,
07,
04,
1e,
18,
09,
15,
04,
08,
fa,
ff,
03,
f9,
f9,
f4,
f1,
ee,
fd,
f4,
f5,
20,
f9,
e9,
02,
08,
09,
f1,
ef,
0b,
1b,
14,
18,
15,
02,
0d,
02,
03,
fa,
01,
fe,
0e,
10,
00,
07,
10,
10,
03,
0b,
fe,
e4,
f5,
00,
fa,
f5,
f2,
0b,
1e,
24,
17,
07,
05,
0f,
04,
fd,
f6,
fd,
0a,
08,
11,
13,
13,
1f,
1b,
2d,
1a,
0c,
fa,
fd,
04,
06,
01,
ff,
09,
0a,
ff,
0b,
06,
1a,
0c,
28,
10,
20,
1b,
24,
2b,
23,
23,
27,
22,
32,
1b,
14,
1c,
14,
09,
08,
fe,
01,
04,
00,
08,
03,
0c,
0a,
03,
11,
0c,
14,
1b,
09,
18,
1e,
20,
18,
1b,
20,
36,
26,
1d,
08,
1c,
16,
02,
f5,
07,
04,
08,
f9,
f9,
08,
f9,
06,
ff,
00,
09,
06,
f9,
09,
00,
fc,
f8,
0a,
f7,
fd,
00,
fe,
08,
0b,
02,
f5,
f8,
02,
fd,
f9,
fc,
f6,
01,
fb,
f9,
ff,
04,
fa,
0b,
f9,
04,
f2,
06,
fa,
01,
02,
fe,
01,
fc,
f6,
f4,
fd,
f8,
00,
f6,
05,
00,
ff,
fb,
03,
fb,
02,
fb,
f9,
f6,
fb,
f2,
e1,
e9,
e5,
e2,
f3,
02,
0c,
0e,
0c,
01,
ff,
f7,
01,
f4,
fd,
ff,
15,
fa,
fd,
0a,
05,
16,
11,
eb,
10,
0b,
03,
eb,
e7,
ec,
e2,
05,
f9,
04,
0d,
02,
09,
0a,
02,
07,
0a,
0a,
f6,
f8,
03,
fd,
08,
01,
f3,
09,
08,
e9,
f0,
f1,
08,
ff,
f5,
04,
ff,
05,
02,
0b,
14,
18,
06,
04,
03,
13,
13,
10,
02,
1a,
17,
09,
f3,
ff,
fa,
04,
f1,
e7,
fd,
03,
01,
fb,
f8,
ef,
f3,
f5,
fd,
f4,
fe,
f3,
fc,
01,
04,
04,
0c,
06,
fe,
15,
15,
1b,
ff,
f6,
02,
13,
01,
14,
10,
0e,
09,
11,
0c,
06,
fd,
f8,
ed,
e7,
f5,
ee,
e8,
f3,
f3,
06,
0f,
02,
12,
18,
1f,
1d,
09,
fe,
06,
fc,
0f,
04,
22,
13,
16,
13,
09,
0d,
f6,
ee,
f1,
f1,
e4,
eb,
fa,
06,
05,
16,
05,
11,
1d,
16,
17,
18,
fb,
f7,
1a,
10,
1d,
0d,
0f,
14,
29,
09,
04,
13,
07,
0c,
03,
ff,
f6,
f8,
07,
1c,
12,
0e,
10,
1e,
1c,
20,
22,
13,
16,
13,
0e,
16,
1c,
2d,
14,
13,
1a,
10,
1f,
19,
1c,
2a,
23,
1d,
0c,
10,
11,
0d,
14,
1b,
14,
20,
17,
2e,
3a,
39,
12,
1c,
1c,
0e,
28,
34,
11,
24,
25,
22,
25,
1b,
2e,
28,
38,
3a,
25,
03,
03,
ff,
0a,
0a,
1a,
0e,
0d,
2a,
39,
37,
0f,
13,
1a,
15,
1b,
28,
23,
11,
1d,
13,
21,
1b,
12,
18,
33,
29,
07,
02,
f0,
f7,
05,
fe,
f7,
07,
09,
1a,
24,
24,
13,
15,
18,
12,
02,
1c,
06,
fd,
10,
03,
0d,
f7,
ea,
ec,
f7,
04,
ee,
f0,
fc,
03,
fd,
f6,
eb,
e9,
e2,
ec,
0d,
10,
04,
09,
0c,
17,
00,
fb,
f1,
ed,
f5,
ee,
ec,
e9,
dc,
ca,
d9,
e9,
ee,
f1,
f8,
f3,
fe,
fc,
e6,
ce,
d6,
ec,
ff,
0d,
10,
11,
16,
25,
f6,
df,
d1,
c8,
d7,
e6,
d5,
d3,
cc,
c0,
de,
fc,
e9,
e8,
e6,
fe,
f3,
ed,
e0,
e5,
e1,
da,
f1,
00,
fc,
07,
f4,
2a,
ec,
d8,
bf,
c9,
cf,
ce,
e6,
d9,
d1,
ee,
0c,
00,
fb,
f2,
f3,
f2,
ec,
ea,
e9,
ee,
f2,
ea,
e9,
fd,
fc,
0a,
04,
19,
02,
c6,
c2,
bc,
ba,
d3,
e3,
da,
f1,
ff,
17,
1c,
05,
f0,
f3,
e8,
fa,
f8,
eb,
f5,
f3,
f0,
ed,
fd,
fc,
00,
07,
03,
11,
e6,
dc,
d1,
ce,
ce,
ea,
f5,
05,
03,
21,
16,
08,
02,
00,
fe,
fe,
f9,
fc,
f2,
fa,
f3,
f3,
03,
f8,
12,
ec,
16,
1b,
09,
f0,
f4,
e5,
f1,
ff,
ff,
05,
19,
0c,
13,
07,
fd,
f9,
f3,
f9,
03,
fc,
f9,
00,
fb,
dc,
05,
06,
0b,
1a,
19,
00,
07,
fd,
08,
ff,
11,
0b,
09,
03,
12,
0d,
11,
12,
01,
10,
09,
03,
f4,
f5,
f1,
fe,
fc,
f4,
fd,
04,
fd,
03,
12,
08,
f9,
fd,
09,
12,
1a,
18,
16,
07,
11,
02,
01,
06,
08,
09,
1b,
04,
fb,
eb,
03,
09,
f7,
fd,
fc,
13,
08,
01,
08,
0f,
fd,
0f,
11,
0b,
11,
13,
02,
12,
09,
0e,
0b,
07,
06,
04,
0e,
07,
ec,
ed,
fe,
ef,
f8,
ed,
fd,
f0,
0f,
06,
00,
f8,
03,
1d,
07,
09,
00,
01,
fa,
0c,
fa,
0b,
12,
0c,
0b,
01,
0d,
04,
ef,
de,
f4,
e6,
ed,
f1,
f7,
ff,
ff,
03,
f4,
ea,
07,
0c,
05,
f4,
f6,
01,
02,
0c,
09,
04,
15,
10,
16,
0b,
13,
03,
fa,
e1,
ee,
e2,
e2,
f1,
0c,
f8,
fe,
0b,
f5,
fd,
f5,
ea,
f1,
ea,
fb,
05,
13,
1c,
11,
16,
26,
1d,
1f,
0e,
12,
0b,
f6,
fa,
eb,
e9,
dc,
f1,
01,
fd,
fa,
fc,
e9,
18,
f3,
f3,
00,
08,
04,
11,
0a,
22,
1e,
14,
15,
1a,
1e,
1e,
24,
20,
fe,
f3,
f9,
e5,
f7,
07,
08,
02,
00,
02,
fd,
00,
f6,
e5,
e6,
ff,
0b,
01,
fb,
08,
06,
0a,
f7,
09,
04,
0f,
09,
20,
03,
03,
04,
06,
f5,
08,
fd,
09,
f9,
06,
f9,
f5,
17,
11,
05,
f4,
0f,
0c,
0d,
14,
04,
2d,
03,
0d,
09,
1a,
12,
1c,
08,
f4,
f7,
04,
0b,
02,
05,
ff,
fe,
fe,
f7,
fc,
fd,
06,
00,
00,
fd,
ff,
0a,
fe,
0e,
07,
fc,
08,
fc,
f7,
f8,
03,
fb,
fa,
01,
f5,
05,
f8,
f9,
0a,
f5,
06,
03,
f8,
fa,
fb,
fc,
0d,
09,
09,
ff,
0c,
09,
05,
f6,
04,
f0,
03,
09,
06,
0e,
10,
ff,
fe,
06,
06,
ff,
fc,
0a,
03,
01,
10,
07,
04,
0d,
12,
f4,
03,
f2,
ec,
f7,
ed,
ed,
ee,
f1,
f1,
f9,
11,
12,
02,
11,
04,
f1,
eb,
06,
09,
fd,
08,
09,
00,
08,
06,
f3,
ee,
eb,
e4,
d3,
ca,
cd,
b9,
c4,
d8,
cc,
ec,
e9,
f2,
ef,
f8,
1e,
10,
f1,
f1,
fe,
02,
fc,
03,
04,
f7,
f5,
e5,
f2,
d1,
ca,
d7,
cc,
b8,
c3,
cb,
d6,
e1,
e5,
f1,
f8,
0c,
03,
15,
15,
29,
0a,
ef,
0d,
0d,
fd,
04,
06,
fc,
fd,
ed,
dc,
e0,
d5,
c8,
bd,
c6,
ce,
e1,
e1,
e8,
ec,
ff,
08,
0f,
20,
13,
12,
ff,
11,
09,
0d,
02,
f8,
f0,
05,
f1,
f4,
da,
e0,
ce,
cf,
ae,
bd,
c2,
cb,
e2,
01,
03,
02,
0f,
1b,
1a,
26,
15,
0f,
05,
09,
1e,
03,
08,
05,
dc,
fa,
fc,
e9,
df,
d3,
cc,
cd,
be,
c3,
df,
f0,
0d,
19,
24,
24,
23,
1a,
20,
1b,
0f,
07,
12,
1f,
00,
f6,
f3,
07,
f2,
ec,
f4,
e7,
de,
df,
d1,
c5,
c0,
cc,
eb,
12,
24,
25,
17,
13,
0e,
1b,
16,
08,
0b,
06,
13,
35,
1c,
12,
15,
f7,
ee,
ed,
e8,
dd,
cf,
d8,
ca,
bf,
d2,
f6,
10,
23,
2e,
1b,
09,
fa,
fb,
f6,
ff,
fb,
f7,
fc,
19,
46,
2e,
0b,
fe,
f1,
fa,
e6,
dd,
ec,
d5,
cc,
c4,
d3,
fd,
0f,
16,
34,
3a,
33,
0d,
f2,
e7,
e3,
f4,
f7,
fb,
16,
1e,
3b,
14,
01,
01,
ee,
fe,
fb,
ed,
e2,
f0,
e0,
dc,
f8,
05,
0e,
1c,
28,
3b,
28,
13,
fd,
ea,
f0,
e9,
f3,
0a,
17,
30,
2e,
11,
0b,
00,
fa,
03,
e9,
eb,
e7,
f5,
e2,
f1,
f6,
0d,
02,
11,
1b,
3d,
32,
2d,
0e,
00,
fe,
fc,
08,
17,
19,
28,
09,
e0,
f3,
f0,
15,
fc,
e8,
e3,
ed,
de,
f4,
f9,
05,
02,
06,
09,
20,
33,
37,
2d,
02,
f3,
ee,
f0,
0a,
05,
ff,
