fa
02
08
fb
04
fd
01
f9
fc
fc
00
09
00
f0
05
fe
00
f8
f7
f8
f6
fd
f6
07
f7
f7
f8
01
f6
04
04
03
f6
06
fc
e8
f2
ef
e9
f8
f4
ee
ec
f3
e6
e2
e4
e8
f7
e9
e5
fb
0a
00
07
ff
02
fa
f3
ec
f5
f6
f7
ef
ef
e2
d3
d1
c7
c2
cf
c8
c9
e2
e6
f0
ed
f0
ee
ea
ff
f9
0a
07
00
f9
fc
ea
f3
fd
de
dc
df
d7
cb
e1
d1
bb
d1
ea
e3
dd
de
db
ec
f3
ec
ee
f9
f2
e9
fd
04
0a
0f
1b
05
ef
e2
ec
da
ea
de
fa
f0
f4
ff
00
ef
f5
f3
f0
e0
dc
d8
dd
0a
16
26
12
01
f7
fe
0b
00
f8
fa
f7
e9
f7
f3
04
0a
0e
01
fd
09
f5
ed
e2
ec
de
dc
d3
f3
12
06
02
fc
ef
fb
08
ef
fb
fc
f1
00
0b
0c
1a
1d
14
16
12
17
23
0c
00
f3
fe
e8
f0
f4
fe
fa
fd
00
07
fa
04
fc
02
00
06
11
10
17
14
18
12
13
22
25
17
1a
03
06
06
fe
09
05
ff
f7
01
e8
f7
f9
08
ff
0e
10
0b
1b
15
12
fe
05
0d
0c
1b
17
1e
26
16
0b
08
08
03
14
13
08
00
fc
00
f5
02
11
06
21
17
0e
0e
06
06
08
06
03
0a
1e
22
12
18
0d
10
18
0b
0c
12
19
01
fa
05
f9
1c
0d
01
01
02
05
13
07
02
fa
fe
03
fe
0b
08
13
19
1d
0a
24
17
12
fd
02
0e
ff
00
f4
1d
13
04
06
0f
25
13
19
14
19
06
11
12
1b
1c
0d
0b
0a
0b
16
13
0f
02
0a
02
08
f9
03
22
1b
18
0b
0f
1c
1f
10
18
13
13
01
14
1c
0f
17
1e
21
1e
18
13
fe
05
10
fc
e9
fa
01
17
20
13
08
13
1b
1a
13
1f
12
06
12
10
21
0c
11
1c
11
04
09
ee
d7
ff
02
fb
f4
15
ee
06
21
01
0d
12
05
0a
0c
19
10
16
06
16
1a
2c
12
05
02
f3
fb
de
e2
ea
e9
f5
f4
0c
02
0e
0b
f9
f3
f4
f8
fd
15
18
12
11
fc
17
18
20
11
04
00
ec
fa
fc
dd
d4
f8
e7
03
10
18
f6
fc
ea
ea
f8
0f
07
fc
01
17
01
00
10
06
12
03
e1
f6
f4
00
f3
ef
cc
ed
e1
fc
03
0b
fe
f0
e2
e9
ee
fb
f4
f0
f8
00
fd
00
09
09
02
f6
e7
f1
f5
f9
f5
e2
cf
e4
e3
11
02
19
08
e4
f2
f0
f0
f2
ed
f4
eb
f5
e9
eb
ee
fe
f1
f1
f0
ee
fd
f3
e3
ce
c7
fc
00
ea
05
07
0c
f6
fd
f5
f4
de
e2
dd
d4
dc
d9
e8
f1
f5
fb
e9
fb
fb
f9
e4
e6
db
c4
e0
ef
fd
18
fd
f8
00
00
f5
fd
f4
df
ec
e1
dd
e1
e5
e6
ed
ef
e3
fb
f9
ea
f4
e7
e3
ce
fc
f0
ff
02
02
f3
f2
f3
f6
f5
01
f0
e1
ed
ea
e7
f1
fd
f2
f7
e4
e6
e6
e4
e9
e1
e5
dd
ec
fb
00
f2
00
f6
ec
f1
07
02
f6
f8
00
0c
07
07
ff
09
f2
f3
f4
f6
e5
eb
00
fd
ee
e7
e8
0b
fe
00
00
14
01
f4
fd
0f
12
0f
1d
17
13
10
0e
11
10
09
fd
f2
03
fd
06
04
f9
eb
e5
08
05
fd
f7
1d
26
1a
1b
1d
1e
0f
1c
1a
23
19
10
22
19
06
fe
0c
11
0f
00
fa
f0
ee
fe
f7
fa
fd
12
05
0a
24
1f
23
1d
30
34
37
21
24
29
1c
16
27
14
16
28
0b
fb
02
02
f8
f8
ff
f7
0a
f6
04
07
1c
2a
22
26
28
27
22
31
26
37
2c
23
2a
34
1c
17
1a
04
09
0c
00
f6
f8
00
f9
f5
00
f2
02
09
05
0a
09
05
06
03
06
14
0e
0b
01
0a
02
03
0c
18
12
fd
01
fa
00
ff
f8
08
03
fb
00
fe
07
fe
fb
f8
f9
08
f4
01
08
f5
07
07
08
09
06
08
01
0a
03
04
03
f6
0a
09
f8
06
fe
ed
fe
ec
f0
05
fc
f2
e9
f6
eb
f9
07
00
f1
fe
06
f7
f8
fd
00
03
f7
fe
07
f7
f2
01
fa
fd
f7
f6
fa
f3
e6
ea
dd
d4
d3
e9
e9
01
f6
03
0c
0b
fb
fd
06
00
f8
f7
05
fe
fc
00
0f
09
16
10
0a
1f
1d
15
f0
fc
f7
f8
03
ff
05
1d
05
0e
05
0b
0b
07
fa
00
02
03
1c
0b
12
20
23
0a
1f
16
1b
1c
08
0a
0c
fd
12
18
18
0d
0e
10
07
22
31
0f
fd
09
05
01
14
02
0f
19
0f
1d
23
29
1e
19
11
13
0b
1c
0c
0a
09
01
0f
09
10
00
30
1a
fe
fb
04
14
37
2e
1d
1c
12
2f
29
24
1d
25
20
23
10
13
15
1b
06
12
04
13
09
12
24
26
0b
08
0a
2b
2c
20
2d
1f
1d
1f
0f
1f
19
21
23
0d
1a
0f
1a
15
21
1a
0f
1a
12
0b
16
18
12
0c
0a
15
23
1b
19
03
09
10
0c
0d
18
15
12
25
1d
19
0d
1b
14
1e
13
12
1f
17
0f
1a
16
0b
0a
20
0f
1b
05
05
04
fb
00
04
13
1c
0f
0d
12
0c
1c
1e
19
06
11
17
02
09
08
13
06
13
11
18
0d
0a
0d
0a
e9
f3
ec
f7
0b
11
01
f5
ed
00
0f
05
07
01
08
ef
d5
e0
ff
1e
0f
04
10
03
14
0a
f2
fa
d9
e9
e1
ea
06
f6
ea
e4
e0
fb
09
16
0c
03
dd
c7
bb
c7
f2
06
02
06
03
fd
f9
03
ef
cc
df
df
d7
ea
fa
f3
e7
dc
d8
ed
09
16
05
02
e4
ce
a7
bf
e4
06
f9
ff
06
10
fb
ef
de
c3
c3
cb
db
ee
f0
e6
f2
f1
e3
ff
0a
16
17
0b
e4
ba
c7
d6
ec
f6
10
03
0d
2a
ff
f1
d8
c1
d3
db
cd
df
d7
d8
e5
f1
e8
fe
01
0e
16
ff
ef
d0
db
e2
fa
04
0f
10
f2
12
f9
eb
d0
c8
c3
d1
c8
d0
cb
e5
e9
e6
ea
ee
04
12
0f
11
f3
e6
ea
f8
0f
0a
04
06
0c
17
04
f5
ed
d0
d6
bf
ca
d3
d7
f8
f3
dd
f5
fa
0f
1a
0d
10
fd
f7
ea
f7
1b
0c
10
03
0d
0f
1f
05
f7
fb
da
d7
e2
d1
e6
f4
f0
d8
e6
03
17
0a
04
ff
06
f7
f6
0d
2a
13
14
11
fc
10
23
1b
16
02
ff
f4
f3
f7
ee
f5
e9
f2
fd
05
12
12
00
f6
0a
f2
f6
11
26
20
07
fd
0d
1d
2f
25
18
1a
0c
10
02
08
ff
02
0b
16
06
0f
10
0a
05
01
02
f0
f5
07
26
19
f8
06
09
1c
32
2e
1d
11
12
25
1a
11
14
0e
11
19
19
12
08
fa
f0
f4
f0
fe
01
0a
14
0d
ef
f5
06
17
1c
12
12
0c
1a
12
17
24
1d
12
15
0c
10
0a
03
f7
f4
ef
ea
00
1a
0b
07
18
fb
f3
fc
16
08
11
f6
0f
1a
24
15
15
1b
20
0f
11
00
f8
04
f0
ed
ef
e7
10
09
fe
00
01
ff
f9
fd
02
19
2b
17
10
19
10
1e
1f
29
02
0c
09
f9
f8
f3
f7
e9
f3
f4
ff
08
ff
0e
08
00
09
0a
07
1f
2f
2a
1c
23
12
23
17
17
19
1b
17
17
fe
07
f4
f6
e5
ed
e3
e6
f6
e5
f8
07
f8
00
ea
24
15
0a
0d
1e
1c
22
2a
30
2a
25
14
1a
1d
07
00
15
e9
e7
f4
f9
f2
eb
fb
f8
f8
f8
f9
04
e8
f6
f5
10
18
04
04
12
0d
0e
0f
11
0b
12
0f
29
06
fa
f6
03
fb
15
01
06
01
05
08
f9
1b
17
1c
02
00
f8
14
00
15
1e
18
12
0c
1f
0f
1b
01
00
01
05
00
04
f6
00
06
fe
00
fe
06
00
09
fd
06
02
f9
fa
01
01
fa
0b
fa
f7
04
08
fc
fa
02
05
f9
00
fd
06
fa
fe
06
f7
02
fb
f7
f4
f3
05
ee
f4
e2
ee
06
0a
fd
e9
e8
eb
f3
f5
eb
ea
00
f6
05
fc
09
fd
04
ef
e2
f4
fc
fa
f5
03
ed
ef
e6
e7
de
f0
e8
e0
eb
e4
ea
ed
e4
e8
0e
0c
fa
f5
01
f7
13
f0
e7
ed
f5
02
00
fa
ef
e8
de
c4
bb
bc
ba
c3
d4
d4
dd
e7
ef
fa
f7
03
fc
01
fa
03
0c
f3
ed
f3
fe
ed
ef
ec
de
e4
df
e5
ea
df
e2
e2
e0
de
ea
f0
fd
0a
0f
11
0a
ff
08
fa
07
f0
f2
f1
e8
ed
e5
dc
ee
fc
ff
fb
02
f5
f2
f8
f9
fa
04
1b
11
04
04
02
f4
02
03
f6
fd
fa
f1
dc
f1
e3
ea
ee
fa
0d
00
0b
19
0c
11
03
00
16
0b
06
fa
fa
02
0f
00
00
08
f9
0c
f4
e4
e9
ed
e1
01
00
00
0f
17
20
21
10
17
04
00
04
17
0b
0b
fe
06
13
fd
f1
ec
03
00
ea
f7
e9
fa
fd
02
fa
05
14
23
2f
27
1a
0d
04
f8
fb
04
0e
05
03
0f
17
21
08
ff
ef
ea
f0
f8
02
07
0b
05
0f
1e
1c
29
2a
2d
1c
0e
04
01
f3
f0
00
0d
0c
1b
38
47
14
ed
f9
e8
f6
03
27
13
04
15
16
1e
1e
2a
13
20
11
04
f5
f9
05
00
06
0a
04
14
40
3a
0c
f3
ec
fe
f7
14
28
1b
16
17
14
07
15
08
15
1b
1e
fe
f9
f8
fd
fa
fb
18
08
14
34
19
12
f3
f6
ee
08
21
28
07
13
05
01
e8
e3
d6
f0
17
17
fe
07
05
0c
12
16
fe
09
f0
0c
28
29
05
00
f2
0c
25
04
f8
02
fc
ed
dd
d8
db
00
0c
12
fe
04
f5
0e
0c
0f
0b
f3
ed
10
35
11
f0
f4
e0
15
12
e2
e7
f3
eb
e4
e2
d4
e2
0f
0c
00
05
0d
06
fa
0f
f7
00
e4
ec
00
2e
12
f5
f3
cb
04
f6
ea
eb
df
e9
f0
f8
eb
f4
0d
06
0b
16
00
08
f2
fc
e6
df
e3
e2
e6
1c
1b
07
ff
e1
ed
f0
ee
01
f7
fb
fe
00
09
14
1e
1f
09
0d
04
ea
ee
e5
eb
ea
ed
f0
f4
24
13
ff
f2
e4
f8
e8
f6
0b
00
0c
07
06
15
15
1e
1a
13
fa
f8
fa
f1
fb
04
00
ea
fd
0a
1b
1c
0b
fe
e4
f5
f8
f2
09
15
04
01
12
09
03
16
1d
1a
fe
f4
f0
f1
f5
f7
02
f0
0a
22
16
0f
13
f0
e8
f0
f4
f4
02
16
05
fa
f7
fa
f1
10
06
0d
04
f3
01
f6
eb
f4
f7
fc
13
37
22
12
fa
eb
f3
f8
fc
f8
00
ff
08
f5
f5
ee
f8
00
07
04
01
f9
fc
05
03
eb
f6
06
30
27
0f
16
0a
f1
01
04
02
13
14
04
0d
00
ff
ed
f0
f5
fe
f8
f9
07
f5
fd
ff
12
fa
06
2c
13
f7
03
00
01
fb
fb
1a
1a
17
11
18
09
fe
f8
e9
f2
fd
f7
fd
fc
04
fc
06
08
06
1e
16
11
df
f3
fa
ff
e3
ec
01
02
00
07
10
09
05
fc
fa
f2
fe
f3
f8
02
0c
06
22
26
29
29
0a
12
fa
00
fc
08
f1
dc
e2
ec
f1
01
f5
ec
00
f9
e5
ea
f1
f9
ec
06
0d
1b
1d
29
18
28
1a
0a
fb
07
05
fe
08
fd
fb
f9
02
f6
02
f3
fe
f4
f2
00
11
09
06
18
19
0b
27
1d
ff
02
ff
0b
02
05
02
08
00
0f
0e
19
1f
21
1f
28
22
13
2c
24
44
2b
25
20
1a
10
17
11
14
16
00
ef
06
fb
00
02
fb
01
ee
ee
fe
07
13
1b
16
00
0b
18
28
17
13
00
06
06
11
0c
0d
f7
00
fb
fb
fc
f7
04
f7
08
03
fc
fe
fd
f7
01
fe
fa
f1
f7
ff
04
fe
f9
fe
f5
03
0a
f8
0a
fc
fa
fa
01
06
01
f7
09
f9
0d
09
fc
06
fd
f0
fa
f9
e7
07
06
0f
f5
e1
f4
00
fc
fd
0e
04
01
04
fa
f7
f6
03
11
f5
fe
f9
f7
ff
08
00
fc
10
0c
0d
00
fc
ec
f3
e3
e6
ef
ec
ff
05
11
0b
09
01
f7
1b
00
f8
03
07
15
00
11
01
05
17
1a
fe
06
fc
f6
f4
e6
e5
e4
e0
f4
00
0d
f4
00
06
0f
16
05
ff
02
06
06
fe
01
0c
0c
15
13
08
02
06
fe
fb
eb
e5
db
cd
c6
e4
fe
11
06
00
09
0e
f2
f1
ee
fc
fe
f4
00
04
08
0a
1e
14
16
0c
fb
fe
05
08
f9
e4
e3
eb
ff
fb
fa
fe
eb
e6
e8
ed
d1
e1
ef
ef
fa
fa
01
08
13
16
17
25
16
18
00
fd
f1
ee
dd
e9
0b
00
00
04
f6
02
ee
f9
eb
ed
e6
e3
eb
fa
07
14
11
21
2a
20
09
fb
0a
0e
09
f7
eb
e2
f6
f6
f7
f8
02
fc
e6
f9
e0
f6
e8
f2
f8
0d
fd
fc
07
1c
1c
0b
00
f7
fa
fe
05
11
f7
df
e8
0d
ff
fe
ed
fb
fd
f6
f7
fd
00
00
08
0d
02
f6
05
0b
1e
fa
00
06
06
fe
fe
0f
02
ed
f1
08
ee
f6
f1
00
09
00
0a
12
01
ff
f5
f9
fc
f6
f4
0f
05
f2
00
00
1a
13
09
02
00
da
e3
f8
fe
f0
d6
ee
fe
0c
08
05
00
05
01
e5
f3
e7
e7
19
11
ee
fa
18
16
29
14
03
05
07
07
f8
12
f2
ec
f0
06
1b
0b
ef
e7
ea
fe
dd
de
cb
f9
1f
07
00
04
1c
21
12
14
02
f0
fd
10
07
05
0e
f6
f1
0d
03
f2
ea
e7
f2
ed
e7
dd
e9
1f
24
0b
0f
04
07
0c
13
fd
f3
e9
f2
16
16
17
fe
f0
e9
0f
f2
e6
e9
f5
e9
ee
e1
f7
06
2e
29
12
13
00
fd
f1
f3
e5
e0
da
e0
08
16
03
f1
f3
e0
0e
f2
fd
00
fa
f6
f8
f0
f9
01
29
23
14
0b
03
ee
f5
ea
e2
d5
d4
f1
0f
02
18
fd
e9
f2
00
15
0a
02
f2
f1
00
0b
15
0d
13
0d
0f
05
f3
ef
df
ce
cd
e3
e4
f5
1d
20
1e
09
f1
ed
14
10
00
0a
fd
01
07
09
13
19
0a
0f
03
0e
f6
f2
e2
e7
e7
f1
f6
fe
15
1e
1d
0f
f4
f5
0c
03
03
12
00
f7
00
17
11
fd
15
13
04
0c
03
fb
f1
ef
f5
fc
fa
19
2a
1c
18
07
f7
fb
f5
fe
04
0d
13
fc
0c
07
06
fe
11
04
00
01
00
0b
0a
ff
f7
10
1a
06
29
2d
12
00
ea
fb
07
0e
0e
1a
16
0c
13
0d
ff
f3
07
f7
05
ff
fb
00
05
04
00
03
1e
1a
20
09
f9
fe
f5
08
0a
06
1a
1f
18
16
10
04
ec
f1
f9
ee
fd
f3
03
01
0f
00
11
14
0f
22
09
fa
fe
11
01
06
1a
24
16
19
1b
0a
05
04
00
ed
ef
f8
f9
fd
f8
12
06
11
0f
19
1d
19
0c
f3
f3
05
02
05
02
f6
fe
0b
0d
11
0d
00
fb
f5
01
f9
f1
fb
fa
05
10
0c
1a
2f
19
13
0b
f9
0a
05
0a
fe
e0
ef
e0
f8
f5
fd
eb
ed
fb
ff
ee
ea
f3
fe
0b
10
0d
19
13
17
23
21
1e
00
fd
ff
fc
10
de
eb
eb
05
11
00
03
00
fb
1c
18
08
0f
09
23
21
23
28
1c
00
f7
f6
16
ff
f6
fb
fd
0a
0a
0f
17
25
18
0e
14
1a
0f
26
27
3d
1f
2e
2b
1d
19
16
19
03
1d
0f
fb
00
04
0a
0a
fa
09
eb
f9
ff
03
fe
00
07
0a
0b
0b
18
1c
03
fb
03
09
02
06
08
ed
04
04
04
02
fd
00
fa
f7
05
fd
fc
00
f8
02
09
03
f6
07
f8
f8
fb
05
04
06
0a
fc
00
04
06
08
fd
f8
f7
07
fd
fd
f6
00
fd
f9
fa
f2
e9
03
f4
f3
ef
fa
01
ff
ea
ed
f9
f6
0a
0a
fa
01
fe
03
04
fe
04
18
06
e2
e6
d4
e4
f0
e1
e6
e5
e5
de
e7
f1
da
f2
ea
f0
f7
00
08
fa
f9
00
fa
f7
fa
f6
00
00
09
04
01
06
f5
fe
fd
17
00
1a
10
10
ef
e1
f5
f8
e1
e1
f9
0e
f9
02
fc
06
0a
fc
10
0f
1b
1b
0e
10
0f
13
0b
0e
ff
0b
05
fa
f4
e7
e7
d3
df
e0
e5
05
04
15
ee
fa
05
08
10
1d
1c
25
1a
12
00
f5
f7
f1
e0
d3
e6
e0
d9
db
da
d2
e3
d6
e4
f3
19
27
0e
00
0a
0a
35
29
11
1c
fb
f6
e6
e7
d9
c5
c5
c3
bb
c4
d3
f1
e3
e7
ff
da
d4
db
fe
00
0d
01
14
27
27
1a
01
0f
0c
e6
e7
df
d7
d4
ce
d3
d5
e1
f0
e9
f3
ef
f8
00
e3
ed
fc
fa
10
06
1c
14
20
1b
1a
1e
08
f8
f0
f9
ff
00
08
07
12
fc
f4
ef
f1
fd
03
10
00
fd
03
f1
fa
0b
0f
0f
1e
27
2a
24
14
10
14
14
32
4d
62
5e
34
1e
05
03
f8
fd
11
0e
04
ff
0f
09
0e
16
0e
1b
31
28
29
24
23
21
35
3e
5d
6c
7f
67
26
0b
f9
ff
10
18
10
15
08
fc
26
24
12
0c
10
2f
27
2a
12
22
18
1c
3a
48
5c
5f
69
39
fa
e0
fa
18
06
17
fd
08
f8
06
28
1e
07
06
19
24
1f
16
18
06
17
33
25
3a
31
28
10
f6
dd
e4
fd
0c
01
ff
ee
f8
e2
00
21
2a
15
07
16
1d
10
09
fc
05
16
14
10
0e
f2
e7
e3
e0
d1
e4
00
fb
ed
fd
00
e7
00
17
38
35
18
17
14
21
0a
fb
f2
f3
ed
04
ef
ec
d9
cc
d5
e9
f7
e7
eb
05
00
14
18
1e
29
2c
25
2f
05
19
fd
23
01
d6
f3
ff
e9
e1
ec
e8
cf
e1
d9
ec
f7
f7
f2
0c
12
28
2d
22
38
2b
08
0a
0c
fc
08
1a
ea
e2
d8
e9
dd
de
f2
de
e0
d8
de
e2
e7
f5
ff
05
15
15
27
2a
2b
2f
19
1d
1f
02
0d
09
f0
dd
ce
cc
e3
e9
df
f2
e1
e6
e2
ec
ec
f7
00
06
0d
19
16
30
27
0c
21
18
17
07
02
0b
04
ea
e6
d3
d6
e2
e4
e2
e8
d3
d6
e6
fa
09
10
0f
07
0a
20
2f
26
10
1a
15
11
06
16
07
f8
ed
f1
e2
e0
e6
eb
fa
e7
e9
f8
f9
00
08
12
f9
fd
f9
0b
1b
15
01
25
1a
00
00
ff
00
ed
da
ea
dc
f6
00
fd
f2
fa
ef
f3
00
02
0e
fe
f9
08
ff
00
0b
24
0e
17
1b
0c
f9
04
0d
f2
db
e5
f6
e2
e7
fc
09
fe
fe
07
08
fd
f8
fd
02
fd
ee
f9
00
11
15
18
fe
09
08
03
0e
fc
f9
eb
fe
fc
fe
09
05
00
05
09
04
03
fd
fc
00
f1
f5
e9
f9
f1
12
18
03
00
f6
fd
14
11
1e
0b
0b
0d
ff
07
16
12
09
fd
f6
fe
04
04
07
f6
df
e7
d9
e4
fd
14
07
06
f7
07
f1
05
10
13
23
04
00
00
f6
05
fb
0b
03
07
0a
13
03
f0
e7
f5
f1
ee
fe
09
fe
0a
f7
f7
00
f6
0e
14
17
0f
0c
08
04
15
14
0a
11
10
16
17
1c
23
04
f7
fe
ef
0e
07
fa
07
fb
f5
ff
f7
f5
04
04
1b
19
1d
0a
08
fc
05
0a
1d
0e
0f
17
33
09
09
0f
00
f4
09
00
08
0a
fc
06
01
11
1f
12
09
1c
14
09
11
fa
25
15
12
13
28
1e
2e
0c
14
08
0c
fe
fb
fc
05
09
08
f7
03
07
ff
f8
ff
09
04
00
fb
00
06
fd
08
fa
05
fb
f9
04
07
02
03
01
00
07
08
00
08
f7
08
13
04
0a
0f
14
02
0d
12
2d
1f
f3
07
0e
11
16
16
09
17
1d
0b
fd
07
05
0a
02
05
0d
06
22
18
21
1d
1a
0d
19
13
08
fe
00
07
09
0d
14
1c
1b
1e
24
1c
f7
f8
f7
04
00
fd
fa
1b
10
f1
10
01
0d
05
15
16
06
0b
08
07
0b
07
1c
22
1b
24
3c
39
1e
09
04
06
03
f7
f0
f1
f7
ef
eb
00
f5
05
fc
fc
f9
01
07
0d
12
12
0f
11
0d
25
1d
26
1a
10
22
1e
02
0a
fc
e2
ea
d6
e8
f1
fe
fc
f4
ff
f9
fe
0b
06
00
11
15
05
15
17
14
14
2b
2e
2a
14
f9
f6
03
e6
d9
eb
df
fd
03
f6
06
10
00
fb
f3
fc
f8
fe
fe
0a
0f
fc
15
17
23
34
0b
03
08
e8
04
d6
c2
e5
f0
f5
0b
fc
15
0d
06
fd
ed
eb
ec
ed
f4
00
fb
00
11
19
36
3c
06
01
08
f7
f6
e5
d8
e2
e9
ee
08
11
0e
18
15
06
ee
ef
f3
ea
fc
fd
f3
ff
0c
1d
2f
29
1a
0e
fa
fb
f9
dd
d9
d3
e5
f4
09
0e
14
13
17
05
ee
d4
dd
de
e7
f2
ef
0f
03
1f
42
2e
19
f4
fc
fa
e1
dc
d8
db
e3
03
09
15
1a
24
17
07
fa
e6
df
ec
e7
f9
f5
06
03
25
42
1c
25
f8
0b
06
ee
d2
d0
ef
ff
1c
1e
13
1c
16
1f
0f
01
dd
e8
f9
f2
eb
f1
00
0a
2b
3c
13
1f
03
01
fa
ee
e2
de
ed
09
0f
06
03
06
16
14
22
f7
eb
fe
f5
ff
f7
fc
0e
14
2d
24
f7
f8
e4
fd
fc
f5
d8
dd
fb
13
0d
fe
0a
0f
11
1f
0e
f7
05
06
ee
fb
04
09
0c
25
33
21
f9
d2
f5
16
ef
f5
ef
c9
f6
04
06
fb
0e
1d
12
10
01
f9
f8
f2
ed
f2
fd
01
05
0a
1f
0b
00
d0
f1
11
ed
01
e1
d1
e3
fa
f8
09
07
13
0d
0c
0c
00
f4
ea
f2
fe
fd
01
00
00
10
07
06
d1
e9
05
eb
f6
df
ca
de
ee
f9
07
0c
1d
19
0d
05
00
f9
e8
e1
f0
0a
08
07
fb
05
04
f2
ce
e4
08
ed
eb
df
d0
ec
f9
01
0e
1f
14
1c
11
03
f5
f4
ef
f5
09
02
10
00
01
ff
ff
e8
dd
ef
01
fb
e8
e8
e2
f2
fd
00
17
12
1b
1e
0e
f8
fb
eb
ff
f8
f7
ff
09
fc
fc
04
f5
eb
e6
e4
f0
f3
02
f4
ea
f5
07
01
15
11
29
29
21
08
f5
fd
02
02
03
fa
05
03
f8
07
f2
d1
dc
f4
09
13
fa
f2
e1
e3
ef
fd
19
20
21
1c
15
0b
03
ff
00
0d
00
ee
00
f3
00
ef
ee
ea
f7
01
f5
e8
f6
e1
ed
e4
ee
fd
ff
15
21
2b
2c
26
17
11
fb
03
02
fc
f3
ec
f4
e9
e0
f1
10
fe
00
f7
e7
f2
f0
e5
ea
ee
fb
03
16
20
28
30
1a
17
0f
03
f8
ee
e1
e4
f6
ed
f3
03
03
00
02
fb
04
fc
f2
ea
f1
e5
f6
06
00
15
12
20
28
19
0b
f4
f2
dd
e0
d6
e0
ff
e8
f9
04
fd
05
07
10
fd
e1
e6
ed
f2
f5
00
07
0b
1c
23
1f
16
1a
f0
f7
e4
e8
e4
f0
e8
e8
e8
f3
f6
ff
ff
f8
03
f4
ea
ee
e2
e8
df
f9
01
f5
fc
ff
01
0e
0c
ee
f9
ea
f7
f2
05
f1
f5
f1
f7
fa
00
08
fe
ff
eb
d5
e5
da
da
da
f6
eb
ed
ce
d3
e1
e0
f4
ee
ee
01
f3
00
07
f9
06
01
01
00
09
07
f5
00
01
fc
f0
f9
ea
fb
e5
ef
d9
ed
f0
f4
f2
00
02
ec
f3
f9
00
ff
05
03
0a
fe
fe
09
f7
06
05
00
00
02
f9
fb
ff
07
fb
0c
07
f9
00
fc
f6
08
07
f9
ff
f7
f7
02
ff
06
fe
fc
07
11
06
11
10
0d
02
0c
0b
02
e3
f7
19
1d
fc
03
0d
fe
00
fa
fd
f8
fe
f7
01
f6
fb
09
07
04
08
0a
14
0e
14
19
02
06
fe
fd
ec
f8
03
fa
0f
fe
05
00
0c
03
fe
fa
f8
fa
fa
1a
01
11
20
20
2e
26
2e
40
21
21
1e
16
08
1c
14
09
15
f7
00
f0
f5
0c
08
f9
f8
00
ef
19
0b
14
25
2f
2c
1f
29
25
18
17
06
02
0a
07
04
fe
f0
e6
ea
d2
df
ee
fc
f9
fe
08
03
12
1a
16
07
23
26
20
07
1b
0f
12
10
00
0b
00
08
fe
f5
e4
da
d9
dd
00
fd
0e
0b
0a
07
18
13
05
14
10
0a
11
14
05
08
21
16
27
1d
0b
fc
04
f9
ee
e7
d4
e0
00
fc
ff
02
12
0c
1c
0a
09
07
02
12
04
0a
07
14
0f
12
12
15
06
07
fb
0a
07
ea
e3
db
f9
ef
08
ff
1e
0f
15
1e
0c
0d
06
10
02
06
06
07
0c
ff
11
14
02
19
1e
09
14
15
f3
eb
ef
ff
fc
0a
05
16
1b
13
11
06
04
f7
fb
ea
e5
f4
ed
fa
fb
00
0c
14
19
1d
2c
2c
00
e7
f1
f4
00
1d
0a
14
27
13
0e
06
f6
e4
dd
e6
d5
d0
f8
ee
f9
09
0f
19
28
25
1b
1e
0a
d6
ee
eb
fe
06
fe
24
2a
11
00
e5
e5
e3
d4
eb
dd
f1
05
02
ee
03
04
0c
1d
1a
17
16
0a
e6
e6
e3
ec
ff
11
18
1f
02
e6
dc
da
ec
f3
e7
f1
fc
f9
f3
f6
02
04
0d
0e
15
00
fd
f0
f6
0c
f0
ed
f5
00
1a
0c
f9
e5
dc
df
ed
f3
eb
ed
01
03
eb
f6
0b
05
0e
0b
fe
f8
f0
e6
00
0b
02
e8
f6
04
14
f3
ef
ed
f3
f0
ee
f6
fe
fd
f2
00
ed
f1
0c
04
09
03
04
fb
ed
00
f9
08
0c
f3
04
13
0a
fd
08
02
fe
f4
e0
f4
ee
f2
f2
fa
00
08
00
0e
0f
0f
10
0a
03
02
13
09
07
12
08
18
12
1a
12
0a
f1
ee
e3
f3
f0
f2
04
ff
e9
03
05
14
18
14
ff
00
09
00
ff
fd
0b
12
fe
08
00
12
1f
11
00
f0
f5
ec
e9
f5
fe
ef
e3
f9
0d
16
05
ff
fa
e9
fa
e9
e8
0c
0d
15
13
0f
0f
1e
14
06
0b
fb
fa
fc
fd
0b
f4
f5
e3
00
19
16
0f
fe
e6
ea
ee
ec
e7
f5
00
ed
ec
13
fe
09
05
1f
05
00
04
f4
00
0a
00
f4
f4
02
0a
05
00
f2
f6
ee
ea
eb
f1
f9
11
f8
05
f4
09
0a
10
07
08
fd
00
07
09
f8
fd
09
f7
07
01
00
e9
ee
f1
ed
ec
e5
f9
f0
f6
f1
00
ff
11
ff
ff
f5
ef
fc
00
fb
02
02
04
0f
ff
02
0a
01
fe
f7
e5
d4
f0
e9
f0
f5
fa
fd
fa
fb
0a
09
fb
eb
fc
01
fe
09
fd
0f
0f
00
0e
0b
ff
f6
fc
ea
e7
de
f0
eb
eb
f8
f1
05
06
07
1b
1b
09
06
05
0d
fd
04
10
11
01
0b
fe
fe
f9
ee
01
fe
f8
fa
00
f9
01
09
fa
04
06
00
1d
1f
2b
18
20
26
1f
02
19
1d
08
0e
12
14
0d
00
eb
e3
f4
ee
f1
ef
00
f4
fa
03
03
f6
fe
fc
13
24
1d
2d
3c
25
33
3c
3b
39
2c
23
1a
0e
12
17
07
fd
f6
e3
ff
f8
ff
ff
f6
fc
0a
0a
f5
fd
07
28
2e
1f
1c
1e
1c
2e
28
25
20
25
1a
27
0f
06
fb
00
f2
08
06
01
fa
fa
fe
f8
14
06
08
fe
14
12
19
fc
05
18
1c
1d
0e
11
22
14
0b
fb
fc
03
fd
fc
00
f9
fb
fa
01
fa
08
0a
07
fe
08
f6
f8
fa
fe
0e
fb
f3
0a
04
fa
09
07
07
03
fb
fc
fe
04
07
fd
fd
f8
08
07
04
04
1c
14
00
1b
0b
16
1f
ff
06
f8
11
14
12
15
1b
13
04
0b
01
05
f9
f8
06
13
0a
15
07
14
1a
21
10
10
10
10
00
0b
01
06
10
15
0d
19
21
24
12
fe
f7
01
0a
00
08
ff
15
17
ff
0c
0c
10
0e
1c
13
04
13
11
0a
10
19
24
21
1b
1d
33
36
13
01
0c
00
09
f2
e7
f6
e8
e3
f3
ef
05
00
0b
fe
0b
fb
f6
f5
fe
07
fc
04
16
19
1b
20
17
10
14
17
00
06
fd
ea
ec
cc
d9
f1
02
11
11
08
00
f7
f5
f2
fd
fe
f2
00
12
09
1a
29
33
23
24
1e
00
08
0f
d9
e7
e0
e3
02
10
0d
00
05
fc
f5
fc
ec
fb
f9
f8
f4
00
05
15
0f
2b
3a
16
02
00
00
fc
df
d7
e6
f3
1a
17
17
04
0c
fe
e7
ed
fc
f5
fe
f3
ed
01
fd
04
0c
22
34
20
15
f9
f9
fa
f5
dc
ea
08
15
19
16
08
03
f2
e1
df
ee
ed
ed
ea
ed
e6
f4
f0
fc
0d
20
22
0d
02
f0
f3
eb
db
e2
f3
0f
20
1d
0d
10
01
d2
c6
d2
d9
d9
d8
d0
e8
f0
fe
0c
20
26
17
f3
fa
ee
e7
e1
df
d5
fc
19
1f
2e
27
08
f3
e0
d5
df
ec
e8
d9
d5
e8
f5
f5
12
24
2a
1d
f7
f4
e5
ee
dc
df
eb
06
17
1f
35
23
06
11
f4
ec
f5
00
ed
f3
e9
f4
f4
fc
13
1f
1d
0d
fe
09
f7
e8
d8
d4
ed
10
15
1c
2d
1d
24
1b
05
f0
08
15
fc
fc
f7
f8
03
fb
01
05
f0
ec
e6
0a
ee
e5
da
dc
ff
09
10
12
21
22
19
06
03
f1
04
07
fd
01
0b
13
08
14
0b
fb
ec
de
ee
0e
ff
ec
f1
de
f2
09
03
16
0e
1b
18
14
fc
fd
10
19
05
05
07
02
10
0e
03
fa
f3
cf
e9
fd
00
02
ed
cf
f1
fa
fb
fd
13
14
1a
1d
0b
0a
0a
04
0b
08
0f
08
10
09
fd
f4
07
d9
e9
f2
03
03
e3
cc
e6
ea
ed
ed
01
05
19
1d
05
0a
00
00
fd
fa
fc
ff
05
02
01
f9
fc
d3
e0
01
f3
fb
eb
d6
e9
f7
f2
f6
f8
04
1f
18
13
00
fd
01
0b
05
fc
0b
03
05
00
f9
ed
e3
e5
fc
f7
f1
e9
e8
f6
07
ec
f8
fc
0b
1f
19
10
f7
ed
06
fb
00
ff
fe
fa
f2
f1
f3
f2
f0
f1
f1
e7
09
f4
e8
ee
03
ec
05
10
0b
15
0d
06
ff
fe
f5
07
fe
00
fb
00
fb
fa
f5
de
e5
f6
ff
fc
f8
00
e9
f1
e7
e9
00
0f
0f
17
0e
09
10
07
f0
fc
fe
fd
fd
01
02
f0
f2
f3
e5
03
fd
f2
fa
ef
f6
f3
e5
ed
f6
fe
05
10
1e
21
22
15
0b
03
00
fb
00
f0
00
ef
fc
04
f6
f5
f1
f9
02
04
0c
e6
e3
db
ec
f3
f8
fb
15
1b
07
06
05
07
f6
f4
e8
f9
f8
f1
f0
f8
03
f3
f7
ff
0c
18
0e
06
e7
e4
f3
ec
f5
ec
fa
04
0f
0a
11
f5
f3
02
f6
f6
f0
fe
ec
f9
fd
00
06
03
0d
1d
00
00
ec
f2
ff
13
0b
1d
14
16
1a
24
1e
fb
fe
fa
03
fb
01
00
ee
eb
fd
06
07
09
fe
0a
0e
fb
04
06
04
10
25
2c
12
1f
20
3f
26
1e
0a
06
ff
05
10
08
01
f1
00
09
02
03
fd
06
f0
ed
ef
e5
e0
ef
f5
12
04
00
eb
e2
ee
eb
d6
cf
e7
fc
fe
f8
fe
fd
05
fe
f6
00
00
f8
f5
0b
f9
f6
00
e9
f7
0b
f7
de
d9
e7
f8
ea
d7
d9
e9
e9
fc
01
fa
06
ff
f7
04
f8
f6
04
f7
f6
03
00
07
fe
0a
05
fb
fb
fe
0b
f8
00
05
0a
fc
fa
06
07
00
f8
f6
07
05
08
fd
fa
fd
03
f1
fa
f3
01
f2
00
00
0d
06
09
0a
01
ec
ec
f2
f4
00
05
f8
f6
fa
fa
fe
f9
06
08
02
f2
f6
f3
f4
fb
eb
f5
04
09
00
f5
00
f3
f2
f6
e8
f5
e7
f4
0e
fb
fe
fa
04
07
fd
03
f6
ec
f4
f9
fc
f7
fc
fc
fa
09
1e
1d
17
08
02
f1
e9
d4
e2
d4
f3
24
fa
09
03
06
fe
ff
fa
d9
f8
f8
f5
08
05
f8
09
27
1a
2e
32
28
22
05
00
ed
f0
e2
e0
00
ec
f1
ff
00
0c
0d
ea
f8
ee
f3
01
f7
fd
f7
04
09
19
1e
37
32
29
1c
10
00
f6
f7
e6
e0
e0
f3
fc
18
00
17
f6
00
f0
f7
ef
f5
f9
f2
00
0f
0e
09
23
29
23
20
16
13
05
ff
d3
cf
e8
f3
03
10
fb
14
0c
f6
fe
00
ef
01
fd
07
10
05
ef
02
0c
1a
2f
30
18
17
23
02
e9
e2
d2
ef
08
1f
0c
23
0e
fc
00
01
0a
12
03
fa
f9
df
de
f0
10
30
31
31
1a
0f
18
13
d7
d9
d8
fa
fb
0f
1d
21
07
0d
fe
0d
09
fb
f0
e3
d2
ca
d2
ea
0e
26
36
30
2c
1f
1c
02
de
d7
d7
fa
fb
08
1c
18
fb
00
07
f7
f6
de
d4
d9
d2
c4
ce
d6
fc
23
36
26
27
1d
16
12
dd
dd
d6
ee
05
0d
01
f0
e6
ec
ea
e2
ea
d9
e0
e2
da
e9
dd
c9
e6
06
0f
28
1e
19
18
02
eb
dc
dc
f1
07
0e
04
e3
d1
e3
e6
e8
e6
ec
fe
f6
f1
ef
de
c5
d5
f2
07
10
13
fd
0c
f8
11
03
f4
f1
05
13
03
e1
e1
df
f5
ff
09
05
02
01
02
e7
e3
d1
e5
00
0b
f8
03
05
05
09
07
07
02
00
ff
f9
1a
f1
ee
fc
10
19
0b
13
01
05
02
e8
ea
d2
e7
fe
05
fe
f7
01
f7
f9
f0
02
05
09
00
08
1d
fc
16
1c
09
1e
15
07
f4
f8
ea
e9
de
f0
f7
0b
08
f4
02
f8
f6
f8
00
03
12
0d
00
03
16
02
21
11
07
1b
05
17
fe
eb
dc
e5
e3
f1
12
19
fc
fd
fd
f6
03
f8
00
0c
19
1d
f7
06
10
0d
26
01
0c
0c
18
07
f6
e5
f3
e8
e6
ff
05
09
02
f8
f0
fc
fc
f2
f1
09
22
14
0d
05
12
09
23
0b
02
18
0c
06
fc
f0
f0
f7
00
05
07
04
00
fa
f4
00
08
00
fe
16
08
11
ff
18
f7
0d
11
16
19
18
10
02
04
fd
fb
06
04
07
0d
0f
fe
ff
f2
f0
f9
00
ff
08
1a
ff
09
11
12
19
21
22
0a
19
05
0a
00
0a
f9
01
fd
0a
02
fe
f7
f9
05
08
f6
f9
fd
ff
13
f9
01
24
20
19
0a
16
08
0a
08
fa
fe
00
05
f6
f8
f5
00
fd
06
0d
fd
06
fa
f1
fe
fe
0b
09
f5
0b
32
03
f5
11
12
0c
06
08
14
0f
11
06
fd
fc
0b
02
03
06
fa
09
05
f8
01
ff
f2
09
f8
fb
1c
03
f3
ff
04
23
14
10
0b
19
15
02
0c
08
f6
0c
10
03
00
03
f7
ea
fd
ff
fc
00
09
fc
03
0e
07
fb
f6
02
fb
0a
ff
fc
0c
00
fc
03
f4
01
01
e8
e6
fb
eb
f5
07
07
fd
f9
f6
f8
fd
11
13
05
00
ef
06
03
fe
02
ff
f7
ea
f3
f6
d5
d3
d3
d1
d8
dc
ee
fd
fd
03
00
08
01
09
01
fd
e4
ed
fb
02
0e
fe
fd
eb
f2
05
11
07
05
f1
e2
ea
ee
f3
f9
fc
00
05
fa
02
07
fb
f8
11
00
f0
00
f9
f8
07
ff
fe
13
0e
09
1a
22
15
fd
f9
00
fa
0e
02
03
02
02
fc
0a
ff
08
01
f8
04
fd
fb
f5
07
08
0a
fa
fd
00
05
fb
f8
ff
f8
06
07
00
fe
f9
09
04
04
07
fd
06
ff
05
f8
f7
04
fd
f8
ff
f9
ec
11
04
0f
fd
f4
02
f8
06
07
f7
fb
0b
02
08
fc
00
f8
03
f8
ea
ed
e7
e8
fb
fa
fe
00
09
07
1e
12
fb
10
03
00
00
fa
00
fb
02
fc
06
03
01
12
14
fa
03
06
0d
2b
1a
1e
14
13
08
0b
12
15
f9
fd
02
fc
f7
00
ef
f1
05
01
08
01
0f
11
0f
07
1f
18
27
1c
2b
36
2f
36
35
37
30
2a
0f
25
11
0d
12
14
03
13
0b
0b
04
fe
03
14
02
07
0e
11
1c
05
1c
29
35
21
19
1c
1b
0f
19
16
13
13
06
12
0d
00
19
01
03
f9
0e
f8
f4
f4
03
1c
0e
19
20
21
14
15
11
16
01
08
05
ff
03
0f
fc
00
02
15
1a
13
fe
f8
03
e0
e6
00
19
09
11
1a
14
03
07
0a
05
0b
fa
f6
f8
fa
09
07
fd
0a
09
04
15
21
08
00
dc
eb
e8
0f
10
0c
09
0e
07
fc
f7
ee
fd
fc
f9
f8
f5
f2
ff
fe
f3
00
fb
fc
26
0d
ff
e3
ea
02
f9
05
16
1c
0d
0b
09
f9
f6
eb
01
f9
06
fb
00
f6
f1
e8
e0
f6
01
0b
27
0e
10
df
f2
f8
05
0a
01
f7
08
06
f4
ff
f7
0b
0d
09
1b
0b
07
fa
f4
da
e5
df
d8
f9
13
21
05
ed
e2
de
fc
09
e9
e8
f3
fa
f5
00
06
1c
1d
30
20
1b
13
fb
f5
e5
db
ca
b3
d7
0f
0c
09
eb
ec
d2
f9
ed
e3
dc
f2
f8
fd
11
18
21
28
24
20
1d
0b
03
00
f6
dc
ca
b3
a9
e9
0d
1a
11
f8
e5
e9
ee
da
c4
e2
ff
f9
fd
05
17
2c
30
23
0f
01
f6
fb
e9
d6
da
c7
cc
d6
09
f5
15
f7
e5
01
dc
b5
be
cb
e2
eb
ee
ee
01
1d
2e
12
00
f8
fa
de
dd
e6
de
e0
e9
e6
0d
f5
fc
00
0b
01
e4
aa
b4
b0
b9
bf
c7
c7
f2
19
0c
06
f0
dd
e6
ee
e7
f4
00
f8
fc
11
19
ec
f7
0f
14
15
f0
cd
bc
a7
96
9d
9b
aa
cd
fa
01
f7
f3
e5
f0
01
f2
fb
04
10
13
13
0a
ed
fa
12
1b
1a
03
f3
e5
c8
b9
a8
8d
96
ba
e8
f7
f7
f5
f0
01
11
00
04
0a
08
03
ed
f0
fe
e4
0d
0a
33
1d
08
04
e5
dd
be
a6
af
ca
ed
09
fd
09
15
13
14
11
0e
0b
0b
17
08
02
0e
13
f2
0e
2f
2b
25
19
00
f9
00
e4
eb
f7
0b
0a
13
2e
23
2b
1a
1d
22
13
14
19
16
f7
07
07
fd
1b
28
20
2c
1e
14
1a
21
20
1c
0c
0d
0b
1a
35
3b
2d
25
25
2c
1d
25
00
fc
00
13
02
03
09
25
30
2a
2c
25
1f
2d
20
13
13
0c
11
14
13
22
29
27
2a
1e
16
0a
f7
fa
05
fb
0e
03
09
19
2a
29
1e
08
1a
22
1a
0a
07
02
09
00
06
29
16
27
23
09
fc
ff
e5
f5
0b
f4
07
f7
1c
2b
16
1e
1c
0f
1c
1a
17
11
0d
0b
00
09
09
0f
06
04
10
f7
ee
e5
e4
f2
0e
fa
f9
f9
07
13
07
f7
0b
18
13
14
1c
0a
12
02
0b
07
09
02
0b
f8
fd
ef
00
f8
f3
0b
13
03
f8
f8
12
02
f3
eb
f8
15
22
25
08
0f
26
18
14
05
0a
04
f5
f3
ea
e5
ec
f2
f5
12
f7
00
05
04
02
03
10
fe
f9
fe
fc
10
0f
f9
0a
f4
ec
06
05
ff
e5
dc
f1
e9
fb
f6
f8
fb
09
0a
05
fc
fe
0a
07
f9
05
fe
fb
e0
e2
e5
f2
da
ec
0b
f5
de
e1
d4
da
ed
fd
04
f9
f7
fe
f7
f5
01
04
fd
fb
03
ff
06
02
06
05
fd
ff
00
ff
fa
01
00
05
04
06
f8
fc
01
fc
08
00
fe
08
f5
fd
01
fc
fb
f2
ed
fa
fe
01
ee
eb
00
f5
ee
ef
fa
f3
f1
f7
f2
f3
f3
fb
07
f9
00
00
fc
f9
f8
08
fa
ff
e6
f6
fe
ee
fd
f2
f8
fe
e9
e6
ff
fe
07
13
0a
fd
01
f2
ed
f6
07
06
08
fa
fb
12
0c
fa
ea
e6
d5
ea
f0
e6
dc
f0
f2
e5
f0
fd
05
17
16
0f
0e
f6
eb
03
f7
00
02
0b
11
08
fb
ee
df
e4
f8
e6
00
f8
fe
02
f6
04
fb
f5
fb
05
f1
05
04
18
18
26
07
f9
09
f8
fd
fa
ed
ee
fd
fe
02
02
0a
0f
0f
0d
ff
fb
09
04
03
ff
ec
f5
fa
f7
19
11
14
05
f0
fe
f3
f8
f2
ed
f5
08
16
19
15
0d
1e
14
0b
0d
0d
ff
00
fc
02
fc
01
0a
18
0d
01
00
f5
ef
e0
e8
01
f1
01
02
11
0c
12
12
08
0e
0c
18
05
09
f3
04
fe
f2
0f
13
11
14
07
fe
f9
fa
f4
f5
00
10
00
19
11
09
fe
fc
00
f8
fb
07
04
fc
ec
06
04
0c
fb
1f
33
37
12
f4
f3
ee
e3
f9
f8
08
0b
11
0e
ff
01
e5
d6
e8
f3
f7
eb
e7
ef
01
0a
01
19
20
2d
1b
fe
ff
e8
e3
f2
ef
f4
fb
0e
1b
0c
01
fe
fd
e0
d3
e4
e7
fe
00
fd
fe
fc
08
15
22
0d
07
f8
f6
e8
e0
db
f6
fb
06
0f
27
28
10
07
0c
fb
f5
ea
00
0c
05
00
00
ff
0f
25
18
03
17
05
f5
ef
d4
da
ef
fb
10
0c
10
25
24
17
21
15
0e
05
13
11
02
0e
0d
07
1a
2b
0f
01
f6
e9
fa
00
e5
d5
f1
00
00
1c
1b
0e
17
20
26
25
16
27
24
13
06
00
f9
fa
12
06
e7
d8
de
01
f0
06
d6
e5
fd
fa
fc
0d
06
1b
29
2b
2b
2d
25
22
14
25
06
ff
ec
fb
ee
d7
d9
d1
d7
fa
ed
13
fc
ea
eb
d8
dd
f2
11
0a
1d
36
39
29
0f
1b
0b
09
04
ef
df
ee
ea
e3
d2
d2
e3
ef
02
05
03
dd
d2
d2
ce
e1
f9
0e
1b
24
2a
0c
06
fe
13
09
ff
f2
e6
df
ec
ed
d5
cb
d3
f3
01
0c
06
f6
e3
d4
d7
e4
f4
fd
01
08
0e
f3
ec
eb
02
0b
00
02
f8
f4
f6
fb
d4
bc
e5
f8
07
04
05
fc
db
ea
e3
de
e5
e8
ed
eb
ec
f5
d7
e4
ff
06
01
0d
00
fa
f5
e6
da
c6
dd
f3
01
ec
0c
04
fd
f8
ec
de
da
d5
de
e1
dd
d6
d4
ed
07
0d
0c
06
07
0d
05
fb
d5
d2
ef
f6
07
f7
05
03
fb
f7
f5
eb
f3
e1
e5
e3
ed
e2
df
f5
0b
14
09
0d
04
0b
06
f1
d8
df
f3
02
00
08
0c
0c
12
02
0a
01
fd
e8
ec
f2
fd
e8
f1
f9
04
0b
06
06
f5
00
00
fe
de
ed
ee
fa
05
06
07
01
09
f3
02
00
f8
f1
02
0b
0d
0a
0b
09
0b
0a
0d
f8
fa
fc
00
ff
dd
eb
01
f8
09
ff
15
19
10
05
fb
01
0c
01
0d
0f
16
1d
22
1d
1c
22
0f
06
fd
09
04
0f
ec
f0
f8
fd
03
05
13
20
22
08
0a
22
18
1e
2b
2d
1a
1f
0a
1e
2a
0f
03
03
1a
06
13
1a
e5
f4
f6
fc
07
f9
17
fb
fd
fb
10
14
04
09
19
15
11
09
0d
13
04
04
08
00
14
13
00
0b
f9
f5
ef
07
ff
f9
fa
00
14
01
08
0c
02
ff
fe
fe
00
08
06
ee
01
09
01
f9
0b
03
ff
0c
21
fc
04
00
ff
01
03
fb
fc
fd
fc
10
0a
fc
fa
01
09
f3
f1
f5
f3
ea
ea
e7
f5
f4
ee
f4
03
08
00
06
02
fc
f6
f6
02
01
f6
03
f9
fe
01
ff
ff
f6
08
03
03
00
05
02
00
fa
09
f9
00
08
00
f6
fd
07
fc
ff
08
fa
ff
ff
e7
fd
01
00
dd
e4
01
f9
0e
00
ef
f7
f9
e8
fa
01
f7
f9
f9
00
ff
fa
07
f4
e1
01
f7
fa
f0
e2
e7
eb
f4
f9
f4
fd
10
09
f0
f2
eb
da
ed
e0
f4
fa
00
00
04
00
fa
f4
eb
f9
eb
f9
ea
f1
f3
f8
01
02
1e
2a
1d
1a
11
09
f5
e6
d7
cb
c7
e0
f1
05
00
04
fc
11
03
0f
f8
f4
f5
f3
fb
fc
0c
18
1a
26
1e
16
16
16
09
ed
ea
cf
d1
e6
ff
f0
00
f8
0a
17
02
1b
fd
fd
00
fe
f2
f7
fe
ee
f2
05
0f
10
22
11
0f
00
04
e7
dd
ef
eb
eb
0a
15
f9
19
12
24
0e
fb
fe
00
05
ef
ec
e9
eb
e5
f3
01
17
10
14
00
00
fe
e0
e5
f9
f6
00
0d
0c
12
21
21
14
ff
fd
0d
0d
00
f5
e9
ec
ed
ee
07
2b
26
19
f9
07
fc
e4
d9
eb
f9
10
19
2a
1c
1c
0c
07
00
01
f9
06
03
f4
f3
dc
f1
0b
20
31
19
0d
f0
f4
e5
c0
d5
e1
00
12
0e
31
10
0e
0f
f4
00
f6
f4
e6
e7
f3
dd
d9
f3
23
29
36
18
fd
f0
fd
e5
c6
ca
e3
e9
11
0e
29
1a
0c
fa
eb
da
e4
d1
e3
db
dc
e6
d4
f1
21
39
31
1a
03
ec
e6
d9
d3
d7
f8
f7
00
1b
18
14
ef
e2
df
df
d5
c9
ec
f2
ea
f3
ea
fe
1d
1f
08
08
ef
e2
ec
e2
e7
ef
fc
f6
08
14
10
f4
d9
d3
e5
df
df
e8
fb
03
08
f3
e8
ee
11
14
03
f3
d7
e3
f3
db
fc
12
08
f4
0a
06
23
f6
e5
dc
f5
e7
ef
03
01
0c
01
e7
e9
e6
f6
0d
00
e3
ec
e8
ec
e4
f1
06
15
06
00
17
1c
ee
06
fe
03
fa
06
0f
0e
13
0b
fd
f2
ee
f7
0a
08
f7
ff
fc
f1
ec
09
17
17
fe
00
01
27
08
22
1a
19
14
17
0d
07
0d
00
f1
00
04
07
0b
0f
0f
fa
0b
12
0f
0c
20
20
16
06
0f
22
1b
20
27
25
10
0d
0f
08
fc
0a
02
0a
01
18
10
0e
15
03
0e
10
14
1f
24
36
1a
07
13
22
2c
3b
1a
18
0e
0a
f4
f4
fe
f7
fd
10
10
1f
1e
0d
10
12
05
00
0d
12
09
1d
00
ea
0a
22
29
2a
1c
ff
05
fa
00
fc
fc
f1
02
06
0d
0c
08
05
0d
fd
08
fe
ff
06
0d
0f
12
fa
05
0d
1c
14
0d
09
03
fa
ff
fa
fc
ec
f7
05
02
09
12
02
fc
fa
fd
fa
05
fc
00
13
08
fc
02
02
26
16
13
00
07
f1
fb
f6
f0
ef
f5
09
fb
00
0b
01
01
fd
fc
fc
01
06
f2
03
00
fb
0d
1f
1b
00
05
fe
05
02
e7
f7
f4
fb
f8
f5
02
ff
ff
06
0b
08
04
05
fd
f6
00
08
0b
f7
06
1d
0f
09
07
0d
fd
01
e8
ea
f0
fc
f4
ff
fd
f9
00
fe
0f
00
05
02
f3
f5
fe
00
0d
f8
07
18
1c
12
0b
10
12
05
ff
04
04
f5
fb
f0
01
ff
fb
08
0b
f9
f4
e3
e9
f8
f4
01
fe
0a
fe
16
20
0e
00
0e
1a
0c
0c
06
f7
09
14
0a
f2
04
fa
ff
e5
ee
f1
ee
ef
01
08
01
07
08
fb
f6
0d
0b
04
00
06
07
0a
f9
12
10
0c
f4
f5
ef
e6
ec
d7
d8
dc
e5
ed
fc
05
08
09
06
07
f7
00
ff
ea
ed
fc
ed
e5
f0
ea
f5
f0
dd
e7
e9
f2
eb
e6
d8
e3
f4
fd
02
fc
f8
f6
02
fc
fd
06
01
07
fb
ec
00
f1
ef
04
f7
00
f0
04
1c
1a
f6
f9
f3
f4
ff
0c
02
02
00
00
00
08
0a
f7
fe
06
09
05
04
f8
05
fc
04
07
0a
f8
00
f8
02
01
01
fa
fe
05
fa
f5
f8
f9
02
fb
00
01
fb
03
ff
00
f6
03
fd
eb
e6
df
f2
f6
f0
ea
dc
f1
f6
f5
09
fc
fe
0a
ff
05
f7
fa
07
f1
eb
f8
00
f3
ef
e9
ef
e1
f4
df
db
d9
e9
f5
d1
d8
de
ee
fa
ef
e7
ed
fb
f7
02
fd
f6
e9
e4
fd
f3
f6
ee
e9
e2
03
0b
df
ed
e3
f5
00
f8
eb
fd
f9
e9
cf
d6
fc
10
fa
f9
01
f6
f0
f1
f7
f1
e7
d4
df
d8
ea
07
f5
0a
f7
f0
ee
de
cd
d9
d3
e0
f0
f3
0c
07
e7
fb
00
f7
eb
f5
db
d1
de
ed
eb
da
e1
ea
f0
ee
df
d2
d1
b5
c7
cc
cc
e7
e6
ee
12
12
01
08
fb
1e
06
fc
02
eb
ed
f6
f4
0b
fb
f9
e6
e6
d9
d7
e0
d9
e4
f2
f8
05
0e
09
22
1f
0e
fe
04
1a
14
ef
00
f8
02
0b
24
1d
12
08
fb
f2
ee
f4
06
16
15
17
15
26
1d
19
1f
15
ff
f7
16
25
05
eb
f5
ef
0b
10
12
13
14
1d
17
0d
1e
1b
24
33
27
44
35
39
37
33
37
10
02
02
21
ff
06
f1
f2
ec
f5
fe
0f
0b
0e
25
11
1d
26
25
35
3a
3d
41
38
32
40
4a
43
15
16
0d
14
0b
12
fe
ea
df
f1
f8
06
16
12
23
1a
16
18
1c
21
1f
22
2a
30
1d
26
3c
45
32
03
17
1b
21
1c
fd
e5
ee
f0
f6
04
19
1b
10
fc
ef
f8
fa
fb
f4
e8
ef
f1
ea
f5
0e
3a
2d
0d
15
0c
0e
07
ec
f4
ef
0e
03
12
1f
1e
0e
fa
d8
e3
dd
ce
cb
ae
a3
ac
ab
a0
c6
05
17
e7
f7
0e
16
00
e3
0d
fb
13
fe
1b
24
22
05
e2
e4
ea
e2
d1
d4
bf
b7
a5
97
af
d4
e1
f2
fb
08
0c
20
f5
f4
10
0d
1a
05
22
15
11
fc
e6
e9
f7
ff
f6
e7
df
d0
c7
d7
e4
ee
d4
e5
f5
04
02
1a
fb
e8
00
17
06
02
12
05
fa
fd
ea
e9
f4
fd
05
08
fb
f4
ec
e6
04
d2
e2
ed
f8
fc
ff
ff
04
f8
ff
0e
00
0b
00
fa
fe
f9
f6
07
0d
0c
0c
0a
02
00
0b
ec
e4
e8
d6
da
e3
f7
f7
04
f4
00
13
11
01
0a
04
fe
f9
00
02
11
09
10
0e
14
10
14
fc
ea
fc
fa
ee
f4
dd
11
fb
22
e5
00
05
09
fd
00
09
fe
0a
1b
0e
14
0a
06
ff
02
10
16
06
e8
dd
dc
c6
07
e9
00
1d
1c
f2
00
06
fa
f7
00
05
eb
ee
fc
0b
00
fc
e7
f6
fa
05
fd
f6
da
e0
d8
d6
f2
00
f9
09
11
e0
e5
f9
df
e9
ea
ea
ef
f2
07
0c
02
e2
f1
ee
ec
f5
f8
de
ef
ee
ea
d3
f6
ff
f6
f7
fe
e2
f6
de
e4
ec
ea
ff
f5
fc
00
00
f3
f2
f0
00
e6
f5
fa
e9
ee
e8
eb
f5
0a
05
f5
f1
00
f3
ef
e7
e9
f8
ed
fc
0d
0c
0e
01
fd
ec
f6
06
e7
f3
f0
f8
f8
eb
04
ef
03
f8
06
00
ee
1f
13
0b
f2
ef
fa
ff
0c
0f
05
0a
02
02
00
ff
ff
f8
00
ed
fb
e8
0a
f2
f3
00
f9
f9
fb
13
16
12
fc
00
02
0c
0b
17
02
1c
16
19
16
0f
fa
fa
f4
f6
02
f8
09
f2
f3
f9
f8
08
fa
21
1d
0f
00
f6
ff
00
04
1a
0c
17
08
0d
06
fc
f3
fa
fa
0a
19
12
18
fb
f8
f7
fd
00
02
f6
ea
f4
f0
ee
fb
03
f9
00
01
0e
fb
fc
f4
f4
f8
0a
0d
fa
0b
fb
0a
0a
fc
02
06
09
f6
fb
1c
24
15
02
0c
04
0c
11
fc
17
f9
03
0b
15
0f
0e
01
01
05
09
00
08
f8
02
02
00
06
03
ff
f9
f5
0a
fe
fa
05
00
10
10
0f
0f
0a
f9
fa
01
06
02
f6
00
05
fd
fc
07
fa
f8
fd
fd
06
0b
15
17
1b
13
10
15
28
14
02
00
14
1e
24
1e
06
18
13
0d
fb
fd
01
fd
fe
fb
04
0a
12
0a
15
1b
26
24
23
21
1f
13
14
19
16
1d
29
1a
2b
1b
1b
27
f4
f9
00
f9
fe
fa
07
09
15
f2
11
06
02
0a
0a
02
06
09
00
11
ff
08
20
21
21
26
31
23
1c
1b
0f
03
f5
fc
e3
e8
e8
e8
e7
f5
e5
fa
f6
0b
ff
fd
01
05
14
21
20
18
23
20
18
1c
12
0f
10
04
fd
fd
ef
f4
de
ca
ca
e7
e8
f6
04
01
04
0d
10
13
1b
28
24
17
2c
24
22
1b
1b
35
2a
16
f8
f7
02
d7
d3
c7
c4
e9
f5
02
fb
10
03
11
22
26
19
15
22
21
20
1c
1d
25
34
29
13
00
fb
ee
0a
e2
d2
d6
d9
ea
00
00
fc
03
10
11
16
16
20
15
1d
18
19
15
02
0d
1e
24
ff
09
01
f0
04
df
d6
da
ef
f3
04
02
00
15
08
01
09
eb
fc
fc
e6
e2
eb
ef
e7
f9
00
02
05
04
fc
f4
ea
e4
db
ef
fc
fa
0f
0e
02
1c
05
fd
e6
ca
cb
c0
bd
c7
b7
c2
c5
d6
eb
09
07
0a
fc
f4
f6
e6
ee
fd
0e
09
07
02
03
fe
f4
d8
cc
be
bb
b2
b6
b2
ac
b9
b1
c0
d2
f7
08
09
08
f6
e8
e0
fb
09
0d
fc
00
ff
00
f9
ef
d8
ca
c2
d0
d2
dd
d5
ca
b4
a3
aa
ca
e6
f8
03
fa
05
fe
0c
f4
02
fd
f6
f7
f7
02
fa
f4
f2
dc
e2
e7
00
ff
0c
f2
da
cc
c0
c3
ed
f0
07
0a
f3
f0
14
f9
00
00
05
f4
ed
10
07
0d
05
fe
fe
ef
05
0e
23
15
03
e2
e4
e8
f4
10
08
14
f3
ec
0e
f6
e4
05
fd
ff
f8
0b
13
0b
13
fd
0d
10
03
05
06
06
f4
ee
ec
fa
14
21
10
ff
fb
e0
0e
f8
e6
04
01
fd
06
01
08
0c
09
01
01
0d
04
07
10
04
f8
d8
e4
0c
25
05
08
f8
fb
f4
00
fe
ef
fb
f0
ee
f6
0c
1b
0f
19
13
08
10
05
01
fe
04
07
ec
f6
0d
34
29
0c
f6
ed
f4
00
fc
ee
f8
f6
fb
fc
12
15
0e
00
00
00
10
fe
00
03
0e
04
02
f1
07
20
17
14
0c
ff
f3
fb
0b
f4
0f
0b
fa
06
0a
0d
21
0b
03
04
03
00
00
00
07
ff
fd
0a
2b
32
00
0a
08
fd
0c
e9
0b
f6
0e
03
f8
0f
0c
13
13
18
11
01
00
fc
09
0b
12
03
0c
19
28
2c
09
06
05
f3
03
ff
0d
14
10
03
04
08
18
20
18
1c
08
0f
0d
03
0e
02
0a
06
1e
1e
24
29
0d
fd
f0
04
fc
fe
0a
0d
08
04
03
14
14
14
19
19
15
00
0a
06
09
0f
11
1c
2a
26
2b
1f
03
05
02
f0
0a
09
0f
0a
fd
01
00
0a
04
11
0a
02
f3
f4
fb
01
00
ff
16
11
1e
20
25
22
0f
02
09
f7
fc
0a
0e
0e
00
e6
02
0a
fd
fd
f8
e6
03
f6
09
ff
00
fd
0b
12
24
29
2a
26
0a
08
0b
09
03
f9
db
f3
e7
e7
f0
ef
e2
e5
f9
fe
fb
07
0f
09
25
19
20
10
2e
21
1e
0b
0c
f7
fe
02
0e
fe
fe
e2
f0
ea
ee
e8
e5
ee
fc
0c
12
24
1e
30
1d
22
2d
33
34
1a
1a
10
00
f8
06
01
05
ff
ff
ff
01
ee
f8
f6
04
fd
fb
09
0e
04
0a
fc
f9
0c
12
11
09
0d
fe
fb
00
fe
09
fd
f9
00
01
09
04
f8
04
f9
f3
02
fb
fc
f6
ed
fa
eb
f4
fc
f9
f1
03
fc
f9
08
fd
f6
09
fd
08
06
f8
fb
fe
05
00
fe
fb
04
f1
f8
04
08
04
03
f8
04
f8
00
fc
f6
fa
07
07
fb
03
03
fb
06
f7
f6
ec
eb
fb
ff
ee
f1
fb
f2
04
07
0e
fa
e5
e6
e5
ee
f2
f6
09
fa
03
05
09
f6
ee
03
00
ef
e3
e3
fa
fc
02
00
f2
e3
ce
d0
db
e7
e2
dd
d3
ca
cc
e1
0b
fd
fd
06
f6
04
fa
0e
fe
f9
ed
e6
00
01
0b
0c
fc
e1
da
e0
f2
ed
da
e4
f2
e6
db
d8
f5
16
1b
0b
f7
f7
fc
f1
f3
ef
f2
f0
e9
f7
f8
ef
ed
dd
d8
e2
d7
f5
fe
ef
e4
f5
ee
f6
f8
17
04
ff
f6
0a
f7
03
f7
fc
03
09
1b
02
0b
0d
fe
08
f2
f0
f1
fc
fd
f1
f6
f7
fa
fa
f2
07
14
0f
fd
fc
10
02
f6
10
09
02
02
17
0d
06
10
1e
1f
13
1f
0a
14
08
0c
f9
03
f7
e8
db
f6
03
fb
fe
17
21
f2
f9
01
05
0c
14
05
1d
28
25
27
18
15
1a
06
10
0b
02
06
ea
e7
d6
f4
04
f2
09
06
0d
00
ec
01
fb
13
10
0c
14
0a
0c
2c
25
16
06
10
0e
14
0e
f3
fa
e4
d4
e1
f3
0c
07
0a
0f
f3
f4
f8
fa
fb
ff
0f
0e
15
1d
12
11
15
02
0f
09
ff
02
fa
f4
ea
da
e9
08
1a
07
15
03
f7
00
09
f3
f2
08
00
0f
05
07
0d
f3
06
06
04
04
0b
f9
f9
e6
e7
f6
ec
ff
12
fc
16
11
f9
f8
05
f7
03
f4
f2
fc
ed
eb
e8
f0
e9
fa
03
09
10
06
f1
e6
da
f4
ec
ea
07
fb
13
17
07
f8
fb
ec
f1
eb
f1
e3
e4
f6
f2
f4
e9
fb
10
09
13
ff
ee
eb
e0
05
15
03
f3
11
19
19
0f
fc
f8
f2
fd
eb
03
fa
f8
06
f1
ed
f0
fa
02
13
07
0d
f7
f1
f4
0c
1a
0d
fc
f9
17
0c
06
f5
09
0e
0a
04
ff
06
02
00
fc
f3
f8
02
15
21
1c
00
03
0c
07
24
31
14
ef
ea
d5
0c
0b
0b
06
04
fb
fd
0d
04
ef
f5
ea
fa
fe
21
22
15
1e
02
f8
0d
14
13
18
10
04
ee
f6
0e
17
12
18
0a
fd
09
07
05
fe
f2
ea
fb
05
2f
28
14
07
12
00
08
11
20
35
1a
05
e9
f7
03
28
13
19
03
02
0d
03
07
01
f6
f5
18
13
25
1a
12
0c
04
02
f6
ff
17
23
14
1b
f0
fc
02
23
0d
0e
0b
0f
fd
f3
f8
f4
fc
0f
22
15
14
04
04
05
f5
f2
f2
02
1c
1e
0b
03
1e
ff
fc
12
0f
fa
fa
03
ef
ee
00
fa
09
0f
07
00
fa
f3
02
00
f1
fb
ec
00
19
21
05
fe
01
02
0f
0b
0e
fa
07
fd
fe
ef
f3
0a
fe
04
ee
f0
ed
e5
f7
f2
e1
f4
f7
07
0a
09
02
f7
f5
fc
00
03
0f
08
fb
fb
00
00
fb
06
fa
e2
e4
e9
ed
e0
d9
eb
e7
fc
02
1c
0e
0d
f9
fe
fe
fb
08
f6
f4
f9
05
13
0b
0c
01
06
f5
ee
ec
e5
dc
ea
e3
e0
ed
00
0c
17
0e
f2
09
ff
f8
e1
16
0b
02
0b
13
17
0f
10
10
f9
f0
ed
ea
f0
e7
e9
f5
02
f9
0c
13
25
07
f3
fa
03
f8
fe
07
06
0c
19
1c
0b
02
00
fe
02
03
ef
f8
07
14
fb
00
14
1a
24
12
1d
0e
0f
f6
00
07
fe
18
1f
12
0a
11
11
0b
09
00
05
05
03
0f
16
12
16
09
1c
25
1d
08
09
0e
0d
02
09
00
00
fc
01
0c
1c
18
1c
1f
28
1f
2e
2e
31
2c
25
2c
2f
25
1b
1a
1a
14
09
0a
08
01
09
fb
f6
f9
06
fe
07
09
07
09
21
09
14
16
27
23
10
1e
1c
0f
12
0f
1b
0f
fa
f9
fb
07
fc
0a
f7
f8
fe
03
fe
f8
09
fe
01
04
fb
f7
f3
04
fd
fd
00
0a
fe
01
07
05
fb
02
ff
02
03
fd
09
08
fb
f6
f8
f7
f6
e3
ec
f4
ed
ea
fa
f8
f4
e7
ff
e8
fa
fc
f1
06
05
fd
00
07
06
fc
f8
f6
f6
ef
f8
f0
df
d9
d4
e0
ea
e4
f6
04
08
05
fe
fd
f3
ea
e6
ed
ec
02
02
f8
01
ff
fa
e5
f7
03
ff
f4
f5
eb
00
fa
03
07
00
0e
04
12
0f
06
13
fb
e3
e5
ed
e9
02
f6
fc
0f
17
1f
fe
10
fb
f7
f9
ed
05
03
03
04
08
16
0f
0b
17
12
01
fc
f5
d6
f2
f0
09
ff
ff
06
0f
1b
00
16
0e
01
01
fb
f6
fd
f1
ff
09
0e
12
00
11
01
04
01
00
fa
f5
02
fa
f9
fc
0b
09
16
05
0c
0c
00
fe
0e
0f
fc
f4
f6
f7
f7
fd
0d
15
fe
f8
0b
08
fd
fb
ee
01
05
fc
0a
f5
14
11
17
fb
f5
fd
ff
02
0f
f2
00
f2
ff
fb
09
1a
1a
fe
fd
01
fa
f1
fa
0a
08
0b
0f
fe
12
0d
01
fd
fa
fb
0e
03
04
04
f6
04
10
06
18
26
11
00
fa
fa
ff
f5
f6
fc
f8
13
1c
07
0b
10
f2
f5
02
06
02
ff
ff
f7
04
10
0d
19
18
20
0e
04
00
0b
ea
eb
0d
05
00
0a
18
20
20
00
ea
ef
f6
05
f6
f5
f4
04
03
04
20
20
21
16
0f
fd
fe
00
e5
fa
11
16
14
0a
1b
24
34
08
f4
f0
ec
f9
fb
ff
12
18
06
0c
27
23
16
14
08
ec
e2
e2
d9
d1
fb
fd
ff
0c
0f
20
1e
fd
ec
f5
f2
01
07
0e
1b
22
1c
13
21
19
13
07
f8
e1
d4
d6
cf
dc
01
05
fb
f3
08
18
0d
09
f6
00
0b
f4
fc
08
07
fe
00
14
1d
15
1c
0f
fb
ec
e9
e0
dd
de
01
fb
fa
0b
10
1f
0c
21
09
f8
00
ff
03
ed
f4
09
fa
07
16
06
1a
0b
08
02
0b
07
0a
00
e7
ec
ec
06
15
25
09
17
0a
01
ed
e4
f7
f6
f3
00
f5
ff
10
10
12
15
0e
0b
0c
23
1b
f6
e3
02
fa
05
08
0e
08
17
0d
0a
f8
f6
f4
ea
eb
f6
f6
09
0b
01
00
1d
12
14
04
05
02
f4
cb
f0
f8
09
0e
19
14
10
04
f9
f3
eb
dd
da
db
f2
ef
f8
08
00
08
12
08
04
0a
08
f7
e7
df
ed
ea
fa
0f
12
16
12
10
0d
f6
f0
e4
da
e1
dc
f3
fb
fb
12
07
01
07
0c
0a
04
f0
d3
d5
01
0e
fe
21
13
2a
10
09
0b
f7
f0
ea
ef
ef
ea
ef
03
08
00
0e
0a
00
f7
fa
e7
d5
bf
e7
eb
fc
01
1b
f9
08
07
01
08
f3
f8
ec
ee
e6
dc
e9
03
01
11
16
08
00
06
f7
eb
d9
c7
ec
f3
0a
05
0a
05
06
0d
fd
08
04
09
ee
ec
ef
f7
f7
f2
00
16
0a
00
08
f2
ed
ce
c7
d5
ee
fa
05
02
1a
05
06
00
02
0e
06
02
ee
ee
f9
f2
fe
fe
15
06
0d
12
0e
ed
e1
e5
cc
da
ee
07
0a
f9
fe
0f
1d
17
1b
13
17
01
f7
05
09
fc
0e
03
06
0a
13
07
f3
df
de
bc
bf
e5
ec
05
09
03
fa
19
2b
36
35
34
1b
1d
1a
1b
1a
0c
1c
1f
19
15
fc
e7
dc
e5
d9
e2
da
ef
e9
0f
0b
f7
09
fb
10
23
30
1e
1c
37
23
1b
23
1b
18
15
00
f3
ef
e3
e6
e3
ec
f1
f8
09
ed
09
f8
fa
08
00
fb
ea
ec
00
f8
00
ef
00
00
fc
f5
e7
f2
ef
f1
f4
05
fa
fe
03
fb
06
04
08
0a
06
fe
00
ff
0b
02
05
01
fc
ff
00
05
f2
09
f6
00
02
12
0f
f7
fb
fd
04
02
01
fe
fb
07
00
01
06
fe
09
0a
fa
02
f9
ff
fb
04
0d
01
07
0c
04
fc
f9
00
03
02
fc
fd
00
07
08
0b
0a
fb
f7
00
f6
fb
fd
f3
f6
fd
eb
ff
f5
e5
d4
fd
16
00
eb
f0
de
f7
fe
ed
f8
ff
fd
09
f9
fb
07
fe
ed
f1
f3
ef
05
0d
05
02
00
de
d6
d0
c5
d6
ef
c8
c5
e1
f0
f7
f7
f5
f7
09
fd
08
0e
f8
ee
f1
ee
ed
f0
ee
f2
e7
df
e1
c3
c6
bb
aa
b2
b9
c1
de
e4
eb
fd
0a
0a
0a
07
01
0b
f7
01
04
ff
01
fb
f9
fb
02
07
04
f4
d6
b8
c0
a7
ac
d2
db
e3
e6
e5
07
08
06
09
01
f7
fb
1b
0b
13
03
02
10
09
0b
13
1c
0f
01
f0
e5
c2
ba
bd
d2
d0
e4
e3
fe
f6
ec
02
fd
fe
10
20
f9
19
05
0e
06
19
16
15
1e
2b
16
1a
14
e5
c2
c6
d9
c7
e4
d9
f3
ed
ed
fa
f2
17
30
21
08
0b
08
fd
0a
08
16
20
24
21
2b
18
15
fa
d7
d6
c8
d4
d2
d0
d0
ea
ef
17
17
23
12
2a
07
12
05
0c
10
0a
00
1d
20
30
2c
21
0b
15
f2
d2
be
d2
ca
d0
e2
0d
0e
17
1c
15
1a
18
1c
0e
13
05
0c
0c
03
0f
2b
2c
35
27
1f
19
10
f4
cb
c3
c7
d5
d8
fd
15
0c
06
16
22
19
1f
21
15
08
08
11
12
15
13
2a
23
19
23
35
16
f5
d1
d1
dc
d5
d5
ea
14
11
19
09
fe
f7
13
08
04
06
fe
01
01
f5
ff
01
04
0c
1a
2d
16
fb
df
c4
d4
e6
ec
05
04
0b
fe
18
f5
05
00
ef
e8
e5
e4
d9
d4
d5
ec
ee
f2
09
20
22
16
e9
de
e2
e8
f8
0b
04
06
f2
0f
20
f6
e3
e2
ec
e6
d6
df
f0
ea
e4
e9
f4
f3
14
1f
1c
f7
e0
d9
e1
f7
24
24
19
17
e8
f7
1b
ea
d3
d1
e3
e5
d5
d0
f2
01
ee
f0
f8
ff
06
1a
21
fb
e2
e6
f2
1d
1f
30
30
06
f4
f5
f1
f2
de
d6
de
e0
dd
e2
f4
ec
ed
f0
fa
04
18
25
18
f7
f4
f4
03
02
21
1a
1f
1e
10
02
f7
eb
ec
d8
cc
d6
f3
ec
00
f2
f0
f7
ee
06
10
1b
fe
f2
fe
06
00
00
1a
26
25
2a
02
f2
fa
e1
da
de
bc
c4
f2
0f
1d
13
13
08
03
03
0c
00
f3
df
f3
f0
00
06
03
2e
32
1f
11
f3
fb
d0
da
cc
bf
cb
f8
0b
26
21
08
02
0d
fa
ef
ff
f0
e7
f3
f4
f1
ee
fe
14
2f
11
ef
1c
f6
d8
d3
ac
a9
d1
fc
10
26
28
17
15
10
05
f5
ef
e5
f9
f2
e8
f2
f0
f9
13
2e
08
fc
0a
f8
e8
cd
bb
ac
d2
f0
13
16
15
1c
18
0e
0e
ff
e5
e1
ed
f4
f1
f1
ec
fd
1b
13
f5
ef
00
f3
de
d0
bb
b4
d6
f6
07
12
11
13
08
04
02
f8
de
ea
f1
df
dc
e0
f0
09
0f
0e
0e
f2
fe
f1
e2
cf
cd
db
da
fa
04
03
00
0d
ff
0e
0f
f6
f0
f2
e2
f2
fa
f4
07
10
16
ee
08
f9
fa
e9
ce
dd
d9
df
ee
f9
f3
fa
0b
1d
0c
12
16
05
fa
fa
00
f2
f4
0f
fd
09
0b
e0
07
06
fa
00
df
fe
f8
e2
da
e5
e3
f6
f3
fb
02
0e
09
fe
06
01
f5
ee
f7
f9
f2
10
0f
0f
05
0a
07
00
03
08
01
00
f6
e5
e8
e5
ec
ef
f1
01
05
02
03
fa
f8
f2
05
e9
f1
ef
0a
0f
06
00
fb
0a
01
f6
00
13
11
24
2e
16
11
07
19
1e
2d
0c
17
2c
25
0c
ff
02
f7
e9
0d
01
08
fd
00
00
00
1e
0b
fc
10
1b
06
1d
08
17
2c
27
1c
0e
39
2d
31
10
06
fb
0c
0a
00
f8
00
08
fb
fa
08
00
f7
f7
fa
f8
01
ff
fe
05
f6
00
fa
fc
0a
fd
f9
04
01
fe
fc
f9
08
06
fc
00
f7
04
01
08
04
f7
01
fe
0a
0c
12
16
15
12
12
0d
0e
14
07
02
1a
0c
0c
00
fb
00
07
03
08
00
05
1d
0f
0a
1c
0a
0c
15
00
fb
0b
fb
0d
1f
13
17
26
20
1a
28
04
f0
02
02
fe
0b
00
14
16
23
fc
f5
f8
f8
ef
f1
ea
ec
fd
f2
f8
fc
0c
16
18
09
11
1f
1f
00
f2
00
fc
00
fa
05
f3
00
e8
f1
ee
ea
ed
ec
f4
ed
eb
f8
14
00
07
ff
15
19
15
0b
19
02
00
18
04
f5
09
03
eb
e9
ea
e7
e7
e3
e6
f4
f1
ed
fe
fb
07
02
fe
09
0b
11
1c
15
08
0a
0e
19
0c
fa
03
0c
f8
00
f0
f4
fc
f0
e8
e4
f1
fb
f7
f3
e3
ea
fd
06
00
03
0a
19
23
26
21
04
06
fa
06
fe
fc
e1
ee
02
01
f0
ef
fc
f9
f9
fb
f0
ea
f4
04
03
06
09
0a
14
2e
23
1a
02
0d
00
1a
00
00
fb
00
f6
f8
f3
01
05
05
0a
04
03
f6
fc
00
01
00
00
0a
1b
21
39
1f
14
13
0f
19
05
07
ff
f5
fe
00
fd
08
0a
0d
12
1a
1a
00
03
06
0c
0d
12
16
07
2b
46
2d
2a
08
0a
11
15
0c
07
f3
f7
0c
12
16
0c
11
22
2b
21
17
0f
fc
10
09
ff
0d
11
26
46
20
24
15
11
1c
13
11
0b
01
06
0a
11
15
15
18
12
2c
37
17
f4
f4
fa
00
09
13
10
36
4c
13
1a
0f
10
0e
1a
15
f7
08
0c
0a
09
05
ff
f6
13
16
17
06
f1
f3
f5
ed
f3
13
15
2c
2f
f8
03
14
00
18
18
04
fc
0f
19
00
06
00
f0
f0
fd
00
01
f3
ea
f6
e9
ef
f3
ef
06
26
28
f1
db
f2
13
0b
16
fa
ef
09
03
04
0d
02
fb
ea
f8
fd
08
f1
eb
ea
e7
f6
f5
fc
0a
18
26
00
d9
eb
06
fc
19
ee
e3
02
fb
0d
0a
08
0d
f5
f9
fd
fc
ed
e2
eb
f5
ed
f1
f6
00
10
17
f4
d9
ef
fd
ef
00
e7
ef
fe
fd
0b
15
02
f9
f9
f9
f1
00
e9
e7
ea
f2
f4
f0
ed
ec
0a
fa
e9
c8
f5
fb
f3
fe
eb
f8
01
09
04
0e
13
0f
fb
f7
f7
f4
ea
ed
ee
f7
f3
fe
ec
f0
07
fd
dd
dc
05
0e
fa
06
ec
eb
ff
f9
13
16
18
14
00
f8
f8
ef
f6
f8
f5
03
ed
ec
e7
f4
fd
fd
e4
f6
f6
02
12
10
f1
ed
f0
0d
09
13
1c
14
0d
05
01
fb
f1
f1
f9
f8
fa
fb
f6
f3
fb
fb
ef
e2
09
02
09
00
e8
f1
fb
03
01
0b
11
13
08
0a
07
fa
03
f5
fe
00
fa
f8
f2
f7
ec
eb
e3
f7
18
01
fc
ea
e8
f5
f9
fc
05
05
08
08
05
09
0d
06
11
0e
fb
fd
e9
fa
f7
e6
dd
eb
ea
0b
03
ff
06
e2
ef
f3
fa
ff
00
f9
01
0a
04
15
0d
17
1d
06
06
02
ee
e7
e9
dc
e3
ed
ee
01
fc
f9
0a
ed
e1
f3
01
f5
06
03
0c
0a
0e
18
1a
1b
21
0d
ff
ed
e1
e7
e2
d8
ec
eb
f0
f4
f9
f9
f7
01
ed
ee
ec
f1
f0
fd
07
04
0e
14
16
15
0f
00
f4
f6
ee
e7
e9
e5
e3
f5
fb
00
01
f9
0a
ee
0d
f5
d9
ef
ef
ea
ee
f8
f9
f5
03
00
08
fa
0a
03
05
ef
fe
ec
fb
f7
03
00
01
03
05
fd
fe
f6
f3
e8
f0
0a
fd
f3
fd
0b
03
f3
f6
f8
ff
04
19
fc
03
06
f9
fa
11
07
04
07
01
08
00
18
1e
09
f5
0c
09
09
0f
09
1e
0d
0a
00
15
17
1d
ff
fb
02
13
f5
03
ff
05
09
fb
03
fb
f7
fe
fa
02
fd
f7
05
fb
f7
f0
f5
f9
f7
08
03
f7
00
f7
04
08
07
06
09
06
fa
f7
ff
05
09
fd
fe
13
09
02
0d
0b
18
06
09
0a
f6
f9
fc
12
2f
21
0f
03
07
01
06
00
ff
f9
f8
13
10
00
19
1b
17
07
11
fc
fb
fa
f5
f5
0f
fe
14
11
1a
21
20
17
f4
11
f7
00
f7
02
0f
16
2e
fd
02
0c
06
01
f7
f0
fb
f3
03
01
fa
0e
1c
28
1e
12
13
0d
04
03
fb
01
fc
0e
16
19
17
11
14
06
05
eb
f4
f6
f3
fd
fc
03
f6
f5
08
19
14
1d
17
0e
fe
07
0f
02
07
09
10
0e
19
18
09
fb
f8
ec
f1
ef
e3
ec
e6
da
e4
e5
ea
05
0a
0c
0c
00
08
02
06
f6
0a
08
fd
12
26
10
0c
ee
f4
f1
e9
e0
d3
db
e7
e2
fa
03
0d
18
0d
0d
04
f4
fd
fe
f5
00
fa
06
fb
16
f7
f3
e9
fb
ec
dd
e3
df
e6
eb
f9
fe
21
2d
1f
24
1b
0f
15
0b
f2
f8
fb
fe
f4
16
00
0a
01
f6
f7
fd
ea
db
e0
e0
eb
f9
03
17
16
26
16
17
17
1e
1e
13
04
02
ed
fc
0b
1d
03
0d
04
ee
04
f8
f2
ea
d4
db
fa
fd
0f
26
14
1f
11
29
1e
12
1e
20
1b
1e
0d
07
15
11
0d
0d
f6
03
fe
f6
f0
e1
dc
ee
ef
20
2f
2d
21
24
1e
21
2e
2f
25
29
2b
33
23
11
17
08
20
1d
15
07
00
f1
f0
df
ed
f0
08
2c
44
36
23
1e
2b
1b
25
2b
29
2b
28
19
13
1c
03
13
1d
23
1c
06
fd
f7
fd
f5
fd
eb
ec
0a
32
31
20
1c
20
13
0a
07
11
0a
e4
ea
fc
10
0a
0a
1a
1d
2a
18
fe
09
01
f0
ec
c8
dd
06
15
0e
06
fc
0a
0b
04
fa
fe
fc
e5
ea
d9
05
f1
11
13
0d
10
0f
12
f5
fa
f5
df
da
e1
fd
05
04
f1
fb
f5
0c
fe
f2
fe
fa
f8
e9
e7
00
0d
ff
00
03
0b
12
10
09
f6
f8
e0
e3
f1
f0
fd
fb
f0
fb
f9
06
02
f2
f4
03
e2
d9
ec
f8
02
09
01
f5
12
2b
20
0d
09
e7
e8
dd
e2
ea
f6
e1
f0
fc
00
01
fb
e5
e1
ec
ee
d6
ef
0e
01
11
ee
04
07
28
24
0b
07
f0
ed
ef
e6
f3
fe
04
f0
fe
03
f9
f1
ce
dc
da
dd
ef
07
17
1c
00
00
03
0a
0b
11
0e
09
08
f3
fd
f1
00
10
06
00
0e
fe
ff
e4
c7
d5
cf
df
f9
11
06
00
22
1c
00
0a
0e
0b
11
16
04
02
05
04
15
11
10
00
fd
ec
e7
cd
d4
d0
db
f2
f4
07
02
f7
13
02
f9
f3
00
0c
fc
07
0d
04
0b
15
1f
0c
05
f3
fb
d8
c8
d2
bd
da
d1
fa
05
f8
0f
09
ff
ff
fd
01
05
07
10
0d
12
12
10
12
0a
0c
02
f2
da
c9
ce
c4
cd
d6
e0
f8
0f
f4
fd
fe
0b
f9
fe
07
01
0e
10
03
13
02
00
02
0f
ff
f2
e9
d5
ba
cf
da
dd
cd
e6
f9
fa
0b
fa
f9
f6
ff
f2
0a
20
1d
14
0f
0b
fb
00
f8
08
e8
e0
d7
cf
cd
d0
da
dd
e3
e3
ff
f7
04
07
fb
07
0b
15
2f
2f
24
2a
23
09
12
0e
0a
00
f7
e7
d5
e0
d2
e8
f0
e3
ee
ef
fd
ee
00
04
0a
09
f8
1b
1b
2c
2b
1f
3c
27
25
1f
35
26
0b
09
0b
00
03
0d
06
06
0b
07
00
08
ff
f6
08
fc
02
08
09
07
15
32
33
45
2a
2c
34
48
49
2c
38
3c
22
1a
1a
28
19
03
f6
0b
0a
fe
05
fa
f9
f6
0d
11
12
13
15
0b
2d
20
1c
1f
30
11
1b
17
25
14
01
0b
09
09
01
01
f8
07
0a
fa
07
f8
02
f9
05
0a
fa
f8
00
04
06
f5
0b
0c
0a
05
01
fa
f9
02
04
09
07
01
0a
09
00
05
00
f6
00
fe
f2
e4
ed
fc
e7
e8
e4
e8
e3
eb
fc
ee
e7
eb
ea
f3
f8
fc
00
08
04
f8
02
fb
f5
f2
ed
ec
e8
dd
e2
e6
e0
d7
e4
db
d3
da
e4
f6
fb
e7
e4
e6
eb
db
f9
f7
00
02
05
fb
fa
eb
ef
ec
eb
e1
dd
d5
cb
e6
cf
c0
b9
d1
db
f4
ed
f8
fa
ec
e5
d2
ef
11
17
0a
00
f7
f1
fe
ee
fa
e3
d1
cf
d1
c4
cd
d3
bb
ca
c7
d8
db
e9
d5
d3
e6
ee
f9
f7
01
10
f2
03
fe
db
fc
ee
f0
e6
de
da
e1
d9
cc
d9
c7
db
c9
cb
cf
d5
d7
e2
fc
01
04
fb
0f
0b
0e
04
f1
0c
fb
f8
02
e6
ee
f1
e3
f4
e2
e2
ef
f5
f6
ee
f4
fa
01
06
0c
15
ff
1c
0b
17
02
09
fd
11
12
ee
ef
fa
f9
fa
ff
0b
f8
15
11
0b
19
10
1e
23
1f
21
23
17
10
1f
11
17
f5
f5
04
12
03
f2
02
00
05
00
07
0b
0a
1b
10
15
1c
12
1a
24
1e
25
2c
20
1d
25
2c
12
ff
13
0f
0b
0d
00
fc
fe
f0
05
07
11
1b
28
2e
28
2d
12
1d
1d
18
08
22
14
14
17
3f
18
0a
1f
05
12
06
f5
f7
0b
00
03
1c
29
2a
2c
1d
19
20
19
0a
00
08
0d
0a
0a
f8
17
3f
33
11
07
08
19
12
01
0c
09
0d
25
1d
1a
15
0d
03
fc
13
fe
f3
f2
eb
eb
f8
e7
da
e9
32
37
13
07
16
15
18
21
0c
0e
26
36
1d
19
11
e9
e9
ef
04
01
f1
e6
ef
e8
dd
e9
d1
dc
16
35
0b
ee
13
16
26
24
1b
22
2d
23
18
18
fb
e1
e4
01
0c
0d
06
f7
e2
f8
e8
ee
cf
ea
0b
39
00
16
01
1f
1b
1d
0c
15
2a
13
08
07
ea
f6
f1
fb
00
0d
16
05
0a
00
f8
f6
e7
ed
09
21
00
0d
0c
16
0d
0a
11
17
15
22
13
18
0f
fd
fa
03
12
1a
2c
15
04
fe
fa
06
ff
ee
06
2d
0c
0d
f5
00
fd
05
0d
0b
10
13
14
0c
12
1d
10
0f
15
1a
2a
09
f6
0a
05
0d
00
fb
09
22
00
09
f7
07
fb
f5
f4
0d
0d
0a
17
0b
08
16
0d
1e
21
0f
00
fd
ff
09
09
05
f6
08
04
19
ed
08
f5
0e
f4
e2
f7
e2
ec
fa
f8
e4
ef
eb
03
04
0e
fd
e4
f8
ee
fc
f9
00
f3
00
00
0f
14
04
04
fb
01
e4
e8
ce
cb
df
d0
ca
c1
dc
f6
f8
03
f0
e2
ef
f2
dc
d7
df
f8
00
14
11
02
f5
ed
f0
f4
e0
dc
c5
b9
be
c3
cb
c0
d7
f2
fb
fc
f7
f3
e0
e9
dd
e6
e6
f4
1a
33
fe
02
f5
ec
f8
de
ee
d9
c5
c9
d2
cd
df
e4
f1
e9
ea
00
09
f2
e8
da
e7
e5
f3
f5
1f
22
fb
f9
f8
f3
f5
00
08
f5
e2
d9
f6
f7
fb
ff
ff
f7
05
f5
fd
ef
f6
e6
f8
fb
f3
12
2d
1f
08
fa
08
02
ea
00
01
11
f6
ff
ef
f9
11
0a
07
00
06
0e
06
06
fe
fe
05
f9
07
0a
1c
13
fe
02
00
03
e6
02
03
16
11
0e
00
04
09
04
03
12
01
0b
13
0d
0a
0f
14
0b
11
0a
f7
e7
fe
03
05
fd
fb
10
1c
12
16
05
0d
03
fc
16
10
08
0e
20
21
14
27
14
0f
36
2e
28
2b
05
02
0a
f5
01
04
fb
02
f6
0d
03
08
0f
0b
07
0c
22
1e
27
16
0c
19
22
1d
10
15
01
01
02
0a
f6
fe
fa
fc
fc
0b
fe
00
06
fe
0c
1b
08
13
1b
0f
0d
11
0f
15
20
17
12
14
17
f7
fa
f7
03
fa
00
05
05
f7
ff
00
05
fa
fd
f6
f8
09
ff
02
fd
fb
f7
f7
f8
03
f6
02
f6
f9
fc
fc
f6
06
fe
04
06
02
04
f6
f8
06
00
fe
ff
02
fd
0b
17
02
eb
dc
f6
ef
f1
01
07
00
f9
fd
09
02
00
04
0e
10
fa
0c
f8
fb
ed
d3
ef
fa
f8
f1
f8
00
00
f1
f3
e5
e8
e2
dc
e4
fb
f6
00
fd
04
0e
0b
0b
fb
f4
f7
fe
03
04
fc
ff
05
00
0a
18
1d
16
08
08
05
05
ed
ee
f5
fb
08
fb
08
06
13
04
f6
fb
f4
e7
e2
f1
ff
00
fe
16
24
0d
0c
01
01
0b
07
07
03
08
09
00
f9
04
07
0c
f9
fe
ff
ff
f0
e9
d5
e5
eb
f3
fe
00
ee
fd
ef
f1
f6
fa
04
00
f6
ed
f9
f3
01
04
f1
f9
fb
00
f5
fd
ef
ec
ea
f2
f9
e3
f7
00
07
0d
11
19
19
14
12
ff
ff
fb
08
0b
f3
06
00
02
0f
f2
e3
f3
f3
e4
e2
01
fc
10
04
0d
1e
16
25
13
16
1a
18
06
0f
04
03
03
01
ff
03
ff
fc
ef
ed
f6
f8
ef
e1
ef
00
0b
0e
17
1c
12
17
15
17
0e
0f
18
07
24
1e
fd
15
04
09
f9
ff
f7
f2
f4
f2
e5
ec
f0
f7
10
12
0d
11
07
11
13
0c
16
0f
18
17
2b
41
23
0a
17
0e
02
05
00
f9
f8
e1
dc
e7
fc
ff
19
11
2e
2a
26
11
1b
16
18
0b
11
22
37
53
1e
1f
0d
04
21
18
06
fd
f3
f4
de
e6
00
0a
1a
25
49
3c
24
2f
1f
1a
21
14
19
09
2f
40
22
15
0c
14
19
1d
0f
01
f2
f0
f0
ee
f6
00
01
1e
37
39
2d
1c
12
18
02
f8
f0
fd
da
06
1d
0e
f9
01
15
18
25
01
fa
f7
f9
f2
f4
e1
dd
01
15
14
1c
12
07
03
00
f3
db
d7
cc
e7
e8
00
05
16
19
14
16
ff
ff
f5
e6
e2
ea
e4
da
03
11
11
fa
00
02
05
fa
f8
e9
df
df
e7
e0
ff
0f
0e
07
0c
13
fd
05
f2
ed
ee
f7
e1
e7
f6
03
ff
fd
02
09
07
09
e6
f2
f2
dc
e7
f2
ff
0b
00
0e
11
1e
11
08
f7
f1
ef
f2
df
e6
ec
f9
f5
ee
fa
f6
03
00
d9
e4
e6
d8
d5
e6
f9
04
12
ff
fd
0e
11
14
0d
fa
f4
f5
f0
f1
ec
09
fd
09
02
fb
f3
f3
cf
d7
e5
eb
f3
f1
03
17
09
15
0e
07
0c
16
0f
0a
05
fb
fc
ee
f8
0b
11
06
01
f8
f1
f6
db
cd
db
e0
f7
00
ff
00
20
18
00
07
00
fc
03
0c
f8
f7
e2
fd
00
12
08
ff
fe
ed
f4
e1
c9
ca
d5
e6
ef
02
0f
fe
12
fd
fe
f3
06
03
fe
0a
f3
ee
f3
f6
0c
10
fd
fc
f8
d8
de
d1
d3
d5
e3
f2
ef
00
02
ff
fa
f0
ed
f0
09
03
05
14
09
fa
09
10
0a
01
09
04
df
d8
ce
cd
cf
de
d7
ed
f8
fe
05
08
ff
f9
e5
ed
00
0c
08
0f
0f
08
fd
0d
02
04
f8
f1
c9
c7
c9
d0
dc
dc
e7
ed
fd
f8
07
f8
0a
ec
f6
0b
0e
0f
1c
00
00
11
06
03
ff
fb
fc
ea
dc
ba
bf
d0
ed
eb
e7
fe
f2
f6
fb
02
fc
ff
04
24
34
18
1b
0d
0c
15
11
1c
0c
f8
0a
ef
ee
d2
df
eb
ea
00
ec
fe
f5
fc
fa
f9
0a
02
17
1f
28
16
21
1e
20
10
26
2d
1d
20
15
1a
0b
0e
03
0d
0d
16
08
10
f4
f2
03
fc
fe
fa
f9
fe
07
18
1d
1c
25
1b
25
32
3a
3c
42
2e
36
23
29
1c
17
0c
04
f5
12
02
09
00
01
01
f5
16
00
04
0d
17
03
18
07
16
1c
2f
11
13
0d
16
1c
05
04
08
0e
f9
f6
f8
05
0a
00
01
02
01
fb
0a
fb
02
0a
fc
06
fc
fb
fb
fc
f7
00
fc
00
05
fd
05
f6
f8
f5
00
04
fe
0a
00
07
01
fa
09
06
f6
04
fd
f7
f5
fa
f9
f8
fc
f5
f8
ef
f2
f8
f6
fe
02
fc
fc
fe
00
00
f4
00
fd
fe
04
f9
f4
06
eb
e6
d8
d6
d4
da
ed
eb
ec
f2
ef
f9
fc
e9
fd
04
00
f7
fe
00
ee
f0
e8
ee
ed
e4
f0
f2
f4
e8
eb
f3
ea
ed
f6
eb
f6
f2
f0
09
00
ff
00
10
06
04
02
fb
f6
e0
e7
dc
e5
ed
e5
f5
03
03
04
f7
09
0c
0e
15
00
00
ff
0d
05
14
17
10
10
f6
03
fe
f2
ef
dc
d2
dd
f6
fd
07
12
27
1a
11
1c
18
19
1b
19
06
1c
06
13
f9
00
24
0a
00
00
f2
f2
d5
e3
de
f1
00
ff
09
0a
14
1d
13
1e
1e
0b
19
13
0e
08
02
0e
01
0b
2d
12
06
f6
eb
ff
d6
df
f5
f8
f3
0c
04
13
13
0e
06
0d
09
21
09
08
10
0c
03
0c
15
1f
18
fe
07
f4
f5
e2
e0
db
ee
04
fa
0c
15
16
01
06
0a
05
fa
00
05
0e
04
ff
04
0e
20
29
1a
18
11
f7
fa
e7
da
e6
e8
03
0b
0b
12
1b
1a
0d
01
f1
d9
e3
f4
ec
09
ff
fb
08
0f
2b
2b
18
fd
ef
f4
f7
d6
f0
0a
16
0e
12
19
19
0e
19
09
f8
e4
d6
e3
fb
fc
fa
f3
06
10
2a
25
32
12
02
e4
e7
e4
f7
1d
10
18
22
10
03
12
01
08
05
e5
df
e8
fe
05
fe
f4
00
1d
27
37
27
14
e7
e8
dc
f0
04
0a
0e
08
0d
00
09
03
17
17
0d
eb
f4
eb
02
02
00
f3
ef
00
08
22
13
10
03
f5
e6
00
03
10
e8
02
f4
07
fd
11
14
21
04
07
f9
ea
f2
f3
f4
e9
e3
ed
da
06
22
1b
05
e3
d0
fa
ec
ed
e2
eb
f0
f7
0b
12
1b
17
11
05
f6
ec
e9
e2
ef
f2
df
e3
e4
ef
0e
14
10
ed
c9
fb
f1
de
e7
da
eb
fc
04
12
19
0c
ff
e5
f0
e8
f4
e1
e5
de
d7
f2
f9
ea
03
06
05
f9
e1
f4
ed
de
e0
d8
e8
ff
00
07
18
07
ff
f2
e4
fa
e6
ea
f2
e7
e5
f2
f4
0e
0a
00
fb
fe
e2
08
f8
06
01
f4
f0
ff
f8
08
f9
ee
dc
f4
f5
f1
f3
f3
ff
f3
ed
06
08
f6
f6
09
00
fe
df
f7
0c
10
23
0d
09
02
0b
f2
fb
e2
ee
ed
f0
02
f0
00
04
08
0e
19
1e
fa
f7
04
fa
00
f5
e0
ff
17
10
13
14
0c
00
ee
e6
f1
ea
f5
fd
00
ff
0d
fe
13
16
26
2a
00
ef
fe
04
f9
00
e2
fd
0d
0f
07
17
08
08
f7
eb
f5
e4
03
0c
1b
06
00
04
12
26
1e
13
06
fb
04
01
f7
f0
f8
f9
06
15
1d
09
0c
01
fb
fa
04
06
0c
00
14
01
0a
1e
20
2f
1e
1d
03
11
f5
05
f2
ee
f3
01
f5
08
07
14
21
05
1d
19
15
0e
16
19
15
08
11
0f
1b
18
28
2e
1a
0e
01
06
08
fe
fe
f7
ec
f6
fb
23
29
19
16
1c
16
18
1b
1f
10
09
12
18
0c
28
33
1b
13
08
f7
0b
09
01
00
e4
dc
e0
ed
03
0d
1e
1c
35
2d
14
25
1c
14
14
1c
06
02
1a
26
1b
fc
f0
05
03
02
0b
f7
f0
e6
eb
f4
eb
ea
fb
12
04
14
19
17
13
1f
11
0a
0e
04
16
13
0d
0d
fd
02
04
09
fb
fa
03
f9
f2
f9
fe
f2
fc
00
05
04
ff
fb
00
fd
fa
e5
fa
f6
ef
fd
f4
f8
07
09
fc
00
f7
fd
f8
ed
f3
fa
05
fe
f9
f6
f7
f5
ea
f9
e7
e9
dc
e9
ef
fa
f6
e4
08
fd
00
05
fa
fe
00
08
fb
fe
0b
0a
07
09
02
02
fc
11
fd
02
07
f8
f6
fa
fa
08
01
07
f5
03
08
ff
04
ff
05
07
07
0a
12
05
fb
04
f9
17
11
05
01
ff
0a
01
03
00
0f
fb
0b
fe
fd
f8
00
fe
0a
06
06
fc
fe
fa
01
0c
11
16
16
12
17
0e
10
04
04
03
0b
12
12
15
ff
ff
0b
07
02
f7
f8
02
02
ff
07
f5
fb
06
13
1a
27
16
11
1e
16
17
1a
14
0f
1c
0f
04
0b
02
07
15
19
fb
05
00
05
ed
08
fb
0e
0a
13
11
1d
21
05
0a
01
0d
06
11
10
15
fc
08
ff
00
ef
0e
32
fc
07
ff
1a
06
14
f1
02
04
04
0e
24
1b
11
12
0b
04
15
12
12
1b
11
12
10
0e
fe
07
14
fb
09
06
16
0e
08
01
03
05
0d
0c
20
15
18
16
26
1a
09
12
13
1d
10
0b
06
03
15
20
25
0e
08
06
05
09
24
0c
ff
05
fe
0b
0a
12
1d
23
21
11
0d
0b
12
19
12
15
1c
07
03
27
1f
17
02
f8
02
14
14
f8
00
ef
00
0a
ff
fa
f8
03
1b
1e
12
16
fd
fb
0c
06
10
10
f8
0e
1a
0f
f6
01
fb
00
06
f4
fd
00
f5
fa
f8
ec
ed
ee
06
02
0a
f5
01
e8
ef
fb
01
02
03
00
07
17
ff
06
06
05
f6
00
f6
f7
f8
f9
ea
e8
e2
e6
d4
da
f5
f0
f7
ed
f6
f1
07
f0
05
f3
fd
19
0a
f1
f4
f2
e8
00
fb
e2
ea
e8
e8
d9
db
c4
bb
c3
d4
e8
fd
ea
ef
f1
f3
f5
f7
e5
f6
fd
05
f0
ff
fe
e9
f2
ed
eb
e6
ed
eb
ec
e2
c8
be
d5
d9
dc
e4
e9
ef
f0
f5
06
f2
f1
00
f8
04
f6
f4
f5
06
f4
f0
e9
f5
e9
ee
f2
e8
d9
e4
d7
d3
d1
ef
eb
f0
0a
05
00
f7
ec
f6
00
11
fd
e0
fe
08
02
04
f4
f2
fd
ec
eb
e5
f3
f6
e7
d6
d9
e1
ec
0c
00
0d
f7
fc
e2
17
0f
11
fb
e4
fb
04
17
f9
f5
f5
ea
ee
eb
fa
ec
e6
d8
cd
e2
f3
f2
0f
12
fc
f2
02
f8
0b
24
ff
f5
00
14
13
1c
f4
ed
dc
dc
e7
f2
f0
f4
e3
dc
d0
ef
fa
0b
05
12
fd
e9
f3
05
16
23
09
01
fa
21
22
10
f6
e2
dd
d8
f5
f2
e5
e1
d9
d1
d0
f9
0f
08
02
fe
f0
e7
e8
25
1e
0d
f6
fd
f3
10
0d
f8
fc
eb
e4
f4
f1
e4
f2
eb
dc
e2
f8
04
1c
07
01
12
f6
e4
f9
2d
2d
0c
ff
02
07
0e
07
05
06
02
04
07
f6
14
0e
f8
fc
f6
1a
1a
1d
0a
0d
12
f9
e2
02
16
2c
12
08
ee
13
20
0e
0d
0f
00
17
12
12
14
12
16
1b
29
20
18
1f
14
14
06
04
f7
f6
1c
11
06
f9
03
09
2b
14
18
12
13
24
1d
21
2f
24
29
2d
35
31
1d
1a
14
07
15
0f
1c
16
18
0c
07
f6
01
20
21
15
13
10
13
1a
2e
30
26
2a
32
20
20
2b
28
21
1c
1b
16
0f
10
10
10
0c
0b
f6
09
13
16
14
06
03
09
1b
10
22
2d
1c
1f
15
1f
1c
25
1e
1c
22
15
22
11
23
1d
ff
fb
0a
0a
0d
00
f3
06
0b
08
01
10
01
0b
17
10
13
1d
09
16
1e
02
12
07
16
14
1b
1b
02
fc
0a
fd
0e
00
00
e8
e4
e0
ec
e1
e7
d7
f1
f0
e7
dd
d4
d8
f4
0c
fb
fb
0e
00
fd
fd
03
08
fc
05
02
fa
00
f1
ec
f5
de
cf
e5
e5
e2
e0
d7
ce
d7
d6
e9
f7
05
f9
f8
fe
09
fa
f6
ff
04
f9
01
01
fb
00
04
fe
fb
05
ff
f5
fe
f9
ed
ed
f6
ff
02
06
fe
f9
f4
04
07
02
f9
f8
fd
02
fd
07
07
fa
00
06
01
04
07
09
fc
00
0a
f7
01
03
03
fe
f6
f6
0a
f6
fa
00
05
08
f7
06
07
08
f7
fe
01
fe
f8
f5
00
f4
ef
e9
08
04
fb
f8
06
fe
f9
01
f5
03
03
06
04
fe
07
0a
09
05
fd
fd
fb
ef
00
fb
01
ed
e9
00
f7
1d
0f
02
0c
fd
f5
f4
f8
00
00
08
f7
08
01
f6
01
fc
e5
01
14
11
1c
0b
09
f7
08
06
fd
14
09
00
0a
fd
04
02
f9
fa
03
f8
f5
ff
06
f7
08
0a
fb
09
09
0d
fe
0e
19
21
15
18
24
20
1b
0e
10
18
0b
15
05
10
0c
00
07
f6
fc
00
00
ec
f3
05
00
fb
fd
0b
13
23
2b
17
07
19
12
03
09
13
17
09
10
05
01
0c
0d
07
00
fa
f6
d9
e5
ec
fa
fd
04
1e
28
1b
13
19
0d
05
08
0d
00
0d
04
05
0c
00
1d
06
12
f7
04
02
de
ce
d9
fb
fb
00
1d
0b
1b
11
18
0f
17
15
00
06
f4
fa
0a
02
05
fb
09
11
0d
05
f6
ec
d6
e1
e0
f0
07
07
13
08
0a
06
02
0b
0a
02
eb
f8
f2
f4
f0
ee
fc
f7
14
14
1b
03
e7
f1
f4
ea
d8
f3
0b
10
08
00
05
0d
f7
06
fb
04
f1
e8
f7
e6
e0
e5
fe
f3
17
2b
10
fc
e0
fc
de
f0
f7
f2
04
0b
0b
04
0c
04
0f
0d
12
0f
02
00
e9
e1
dd
e5
dd
e8
03
2c
14
fb
f2
eb
dd
fa
f5
03
05
fd
0d
00
fe
08
03
19
2e
18
14
06
00
fa
e9
dc
c9
c8
de
0d
14
09
fd
ec
d3
e9
fe
f1
f5
01
07
f8
02
ff
16
1b
27
28
0a
0f
12
05
fb
e4
cc
bf
bf
fa
13
01
14
f1
e0
ec
e8
f5
ea
08
07
0a
01
02
16
21
28
0e
00
03
00
04
ee
ed
da
c5
c5
eb
fc
00
05
f7
e8
fb
e2
d2
ec
e8
ff
f9
f9
e7
fc
20
25
16
08
ea
ea
e1
f2
e8
de
d6
df
f2
01
ee
0d
05
e4
01
d6
c2
db
e3
e5
f7
f1
fd
01
17
18
06
fc
e9
eb
f1
df
e3
f0
f4
fb
00
f7
fa
f4
10
04
0b
f6
de
e1
c9
d8
e4
dc
e2
ec
ff
03
f6
fb
ec
fe
00
ec
f2
f3
fd
08
02
02
eb
06
07
03
32
00
f8
eb
d0
ce
c6
d1
c1
e6
fe
fa
09
fa
f8
0a
fe
0c
0f
05
0a
10
f0
f6
1a
06
07
13
28
16
01
02
e7
d8
ca
c1
bd
d9
ee
00
02
0a
07
00
1a
21
1a
0d
1a
21
12
00
07
02
eb
01
24
10
14
0b
fc
fe
fe
f2
e8
e8
f5
fd
03
08
10
23
22
17
21
1c
17
27
0e
fc
02
07
fd
0b
28
1b
22
17
19
20
15
ff
fd
eb
fb
fe
fd
17
1b
1f
1a
21
16
1e
25
20
1a
ff
0c
0a
01
ff
12
27
21
23
13
1b
24
14
0f
f7
02
07
0f
06
19
13
22
2c
2a
1e
16
19
1b
06
00
0a
08
f6
20
28
16
13
0d
0c
0f
02
07
f5
f4
04
04
06
13
17
18
1d
26
11
20
25
1a
0c
fe
fb
04
0d
0e
2c
21
12
fd
1a
15
0b
0c
09
f6
ed
f5
03
0f
00
0d
16
22
13
27
1c
10
1e
00
06
04
05
0e
fd
04
06
0b
03
09
0d
00
03
f2
ee
f3
08
11
11
19
1c
11
24
2a
1e
f5
00
02
00
0a
00
fd
ef
ff
00
16
16
11
0d
10
18
08
0e
14
17
22
15
14
2c
20
1f
16
28
ff
00
fa
fa
f9
f6
0a
10
06
02
0f
07
1e
0a
13
17
0e
21
23
27
21
18
08
1b
17
16
0d
06
fe
06
0a
05
f9
01
06
04
f2
fb
f6
f1
00
f9
00
fa
ec
13
00
ed
f2
fb
ed
fd
f8
f9
fd
00
09
06
04
f7
04
04
f7
02
fd
ff
00
04
fd
02
0a
08
03
00
f7
00
fc
08
03
f7
0a
fc
05
f8
fd
f8
fe
07
03
fb
06
fc
0c
fc
00
fd
07
0e
fa
fe
13
fc
ec
fe
f7
0d
0b
04
02
0b
0c
00
fc
09
01
0a
fa
03
ef
09
05
18
10
14
0e
11
1b
14
0a
24
14
09
1e
19
08
0f
0e
1b
23
06
01
01
03
04
00
ff
0a
0a
0c
07
0c
01
00
12
04
06
05
10
fa
00
fb
11
14
23
26
2b
26
14
ff
08
00
f9
f2
f0
03
18
00
0b
fd
fa
00
f2
f6
f5
f2
eb
fd
07
00
01
0d
12
1a
1e
28
1b
16
07
06
05
00
f8
ff
15
f7
f4
f6
06
04
01
00
fb
eb
f6
eb
05
01
11
11
09
01
0c
2e
2c
0b
04
06
f5
ff
02
e8
1c
0e
06
07
03
10
01
f7
00
f8
ec
f8
f7
0a
0b
09
0a
08
07
17
1b
13
05
04
05
08
07
f6
0c
19
02
12
0a
0c
0a
00
fb
f9
fc
ee
fe
0b
fe
0d
0e
fc
fe
00
18
1a
0d
06
fe
ea
f3
ec
fa
12
09
00
01
08
f8
f6
fd
e2
ed
d6
eb
e5
eb
ec
ec
fd
f4
ee
f9
16
f1
fe
f2
f2
fc
ed
ef
fd
e7
f1
fc
f5
00
05
ee
db
d9
d2
ce
d1
d7
dc
f0
e9
de
df
e1
ff
fc
0a
f9
fe
e9
f1
e8
e5
f6
f4
03
0f
fe
09
ee
df
d2
d5
ee
de
df
d3
d6
de
d6
d9
e5
f6
f4
fc
f4
ed
dc
ee
e0
f7
00
f6
0f
11
13
0a
f8
e2
de
fc
1a
00
ee
eb
de
d6
d5
d5
e6
d9
ed
f6
fe
f3
f0
ef
e4
f8
fe
03
11
11
13
14
fd
f5
e4
0f
26
20
12
fc
ee
f3
e6
ea
e4
ec
da
e8
09
fa
e7
e7
09
03
13
18
0c
0b
21
19
05
f4
f6
18
28
16
1b
16
0a
0d
05
fb
f6
eb
d5
f7
0f
f3
f5
ff
22
25
22
19
1d
1d
17
15
01
ec
f4
16
23
14
12
11
0c
0d
ff
0c
05
f7
d6
ea
00
f8
10
02
0e
19
21
1c
10
16
1a
0c
10
f4
06
15
1e
24
0e
14
08
0b
01
06
fd
f0
e6
f6
05
05
09
00
f4
05
0e
19
18
0a
08
09
01
f5
fc
04
1f
20
15
15
18
0c
15
11
0e
fa
eb
e5
fa
fc
09
fa
03
fb
11
10
13
02
fc
08
fc
fc
fc
08
09
18
1c
21
11
18
ff
ff
f5
fc
eb
e3
03
00
10
13
07
f9
07
02
fa
01
ed
f3
f4
03
04
fa
0e
09
11
13
13
05
06
fb
ff
e5
f4
f9
f6
ef
10
19
0c
03
04
ec
ee
f3
fb
fb
f7
f0
fd
f7
09
11
0c
11
0e
0b
fc
01
01
e6
e3
00
08
01
17
13
0a
fc
e6
ea
e9
f0
e9
fd
f2
fe
07
01
00
11
0a
fc
03
f8
f7
fe
00
0e
03
fc
fc
06
fb
12
02
e5
de
e1
f7
fd
f6
fa
fc
fc
fb
09
00
06
fc
fe
08
fc
09
05
13
ff
fe
f3
f7
04
08
02
07
e2
e7
de
f2
fd
f4
fa
f5
f6
f1
f9
00
00
02
fd
0b
0b
00
08
0a
f8
18
ff
f7
03
04
09
21
13
00
f8
fb
02
04
00
00
ed
00
f7
03
00
fa
01
0f
00
f9
0b
08
0e
1d
01
fd
f9
14
17
14
24
1d
1c
18
1e
19
0e
05
03
01
03
fa
01
08
05
1a
1c
1c
0e
ff
fe
fb
fb
f8
f6
1a
19
16
0e
1a
0f
0f
1e
14
05
ff
16
01
0f
ff
f7
f8
f0
0b
15
22
1d
0f
fd
00
fe
07
f7
0a
ff
07
ef
eb
e7
ec
e3
f0
f0
e8
e0
c2
de
cd
da
d6
d7
ec
f8
f9
fb
fb
08
06
0a
fb
04
07
fb
fb
07
fe
f7
ee
ee
f0
e6
f1
ef
db
ea
e7
df
d1
db
f9
fd
fd
f3
02
f9
09
08
f7
fb
f9
00
f6
f6
0a
00
f8
07
00
fe
fe
ff
0b
0d
00
fe
07
09
00
05
02
f6
03
f6
04
00
02
fa
04
fa
00
00
00
f3
f6
fe
f8
f9
ea
f6
08
0e
08
0a
eb
f8
fc
f8
00
fd
09
f9
04
fa
f5
f6
09
f7
07
f7
f9
f3
fd
f5
ee
04
0b
0c
05
10
16
f7
01
f2
fa
f3
ee
f3
04
ff
f9
09
fc
06
13
15
0d
09
fb
fa
fa
fb
f3
07
17
1b
07
1d
17
0f
0c
f6
ec
ef
dc
e4
e6
fb
fa
03
06
01
08
13
0e
06
08
06
f3
f9
fa
fa
fd
18
1a
21
1d
16
04
0f
ff
f3
fb
de
f0
f6
0c
f4
09
05
12
0d
f8
09
03
f8
f8
ee
e2
e9
f1
fe
06
07
0f
07
14
06
05
03
fb
f8
e9
ed
f9
ff
ff
07
03
08
08
04
fe
00
00
f5
01
fa
f9
00
08
00
0b
0e
00
0f
0f
0e
0e
f6
e5
fc
f6
00
09
18
0c
0c
0e
06
08
02
0f
0c
15
0d
18
0e
03
08
06
0b
1a
23
18
1a
0b
00
e6
e5
fd
fc
07
16
26
18
10
10
1b
1f
12
20
0c
0f
26
16
00
03
12
19
26
1d
12
16
21
fa
ce
e7
f9
fb
00
10
22
14
1d
19
15
26
1c
13
00
f7
f7
dc
e8
00
03
13
16
17
15
0f
10
e7
d7
ed
06
fc
01
04
26
14
02
f6
00
04
03
e0
d9
cd
b4
bc
da
fe
ff
1a
0d
1c
13
07
ff
e9
ca
ed
0a
05
02
01
0e
0e
f5
ed
e4
de
d3
d6
c2
b3
ba
ce
f5
03
0b
09
09
11
fd
f4
f2
de
fb
0e
08
16
0e
fa
04
f7
cd
c7
cd
c8
c0
c8
ba
b8
ca
e4
16
1a
0f
f7
f9
f0
f5
ed
d5
ee
00
11
f8
09
0a
f0
01
e1
c1
b5
ba
c0
b5
c6
d7
da
e3
02
18
10
fd
e8
f1
f1
fa
f3
d0
e4
f5
13
ff
05
f6
f8
fc
ee
ca
c5
b8
c3
d3
d6
e9
fd
0b
18
18
11
01
f3
fc
fd
f8
f0
eb
ed
ed
0a
09
0e
00
00
19
ee
f2
dc
e8
de
e2
f1
00
04
27
38
27
08
fd
e7
01
01
f0
eb
e3
e4
f5
03
11
0f
04
13
1e
09
0d
f9
f7
f9
05
05
0f
10
33
3a
1d
0a
f1
fb
fb
f5
f1
f0
ea
f1
03
0c
15
0d
fb
0a
15
2c
13
10
fc
f9
07
08
0f
0e
2e
1a
0c
fc
0d
06
02
fa
e8
e1
ee
f8
0b
13
1d
14
00
01
18
39
19
0a
0e
10
0c
0b
11
18
12
15
09
01
0c
fd
00
0a
f1
fa
f8
fb
08
0d
07
09
03
00
fe
1c
1d
0f
1e
12
10
0f
0c
07
03
0b
08
f8
01
0e
fa
05
fa
fe
f6
09
0d
19
10
0d
fe
00
09
21
27
0d
21
1a
1b
0b
f6
f7
ff
f2
fa
fc
03
fd
07
0d
fa
f5
ef
11
16
05
13
fe
00
0e
1f
2a
11
19
27
14
04
ff
03
f9
f8
ef
f6
f2
f7
fc
00
0a
fe
00
fc
09
11
f5
08
06
0b
1c
15
1e
1d
15
14
0c
0a
f2
f2
fa
f0
02
09
fd
06
f8
0b
09
00
01
fd
fc
fb
f5
f4
03
f9
f6
19
04
10
1e
18
1b
fa
ff
01
f8
ff
1a
0b
0d
0c
03
ff
05
f8
00
ef
fb
f9
fd
12
0a
fb
fe
15
08
10
02
0f
11
00
01
00
15
0f
17
20
06
00
05
ec
fb
f4
e1
e5
fb
03
fa
0c
03
03
f7
f3
f5
01
f8
09
0a
09
0c
12
0c
12
09
0e
0e
07
0a
f0
f8
e5
e1
d6
f6
fc
fd
0d
fe
00
fd
ff
f4
ec
f2
e7
00
f5
f7
f1
f5
ef
e4
fd
f0
f5
04
fb
f5
04
f0
02
f6
0a
02
07
fc
0a
00
00
04
15
06
00
fe
0c
0b
25
20
04
09
0f
17
00
06
fd
fc
11
ee
01
05
f9
03
08
00
f8
ff
ff
f9
fe
fd
f6
09
07
fc
08
fb
00
05
fc
fb
00
fb
05
fd
05
00
ff
08
04
f8
f7
fb
07
f9
f9
fa
0c
0c
12
13
16
05
09
22
21
24
08
0f
09
1c
23
24
15
0a
1c
0f
00
02
f8
fe
06
f5
08
0e
1f
17
13
20
1f
14
22
1c
19
1d
1a
15
0f
17
05
10
1f
20
28
22
f6
ff
0a
fd
fe
fa
01
1a
17
f6
0a
0c
13
16
1c
21
21
2d
21
0f
0d
03
0a
0b
12
06
00
16
10
f2
01
00
01
f8
fe
fb
0f
fa
00
01
07
0f
16
07
08
fe
0a
f6
fd
00
fb
08
07
fd
10
0b
f0
e5
e7
00
0a
f9
05
e8
11
ed
fc
ff
02
fd
01
fa
f7
0f
0c
fa
ed
00
01
02
f9
01
f7
0e
ff
d9
00
00
04
01
fe
f6
05
03
03
03
f3
ee
ef
f4
0d
00
0c
f4
ef
e0
e9
ec
f2
0b
08
fe
f6
e1
e1
f1
ff
f7
fe
eb
fe
0b
ef
f1
ee
e1
f3
f8
0e
10
09
02
e6
e5
d8
e5
f2
f4
ff
ff
ef
de
f8
f8
05
f1
09
eb
f7
fe
ea
da
ef
ee
e7
f6
fc
07
19
05
eb
e6
da
e8
ef
f8
fa
fb
e7
db
d5
e8
ff
ff
fd
f7
f8
e5
d7
f1
e8
ef
fc
00
05
19
0e
00
e8
eb
ed
f1
f7
fb
f2
02
f5
c4
bc
06
00
05
fb
f6
ef
dd
ed
f9
f0
fd
f9
0a
14
25
0b
f1
ed
f2
04
03
09
06
00
06
09
db
ce
f8
09
04
fe
e9
d7
e6
fd
f6
ff
09
0a
1a
28
1f
e2
e0
f4
04
0a
03
f9
11
0d
11
08
d2
e1
ef
00
02
fa
e7
c6
f6
15
14
12
16
19
26
21
0d
dd
cc
ea
f4
ff
f6
fe
03
0a
18
21
f6
e8
eb
f6
16
0e
f7
cb
11
1b
1c
18
23
1c
1c
0c
e9
ca
da
e6
fc
e7
f9
f4
f7
14
25
27
fd
ce
f3
12
0d
0e
fe
d4
10
1a
26
1b
1d
0f
07
f6
e2
da
e3
e0
e3
f5
f6
01
06
1f
3c
31
f0
e6
f2
03
ff
1b
f4
e9
09
0d
2c
11
12
05
0a
f6
e1
d9
dd
eb
e4
f9
02
02
19
15
2f
2a
05
e4
db
04
0f
fc
f2
e2
0d
15
1a
18
19
13
09
e3
df
e1
eb
eb
ed
11
1d
13
13
1a
10
23
02
d6
e9
06
fd
07
e1
f0
11
0a
0f
15
19
1e
17
02
ed
fd
fc
03
09
10
12
11
09
26
15
14
fb
e7
f4
ea
f8
05
db
e9
f7
f3
04
18
19
16
1d
10
0c
01
ff
1a
17
17
17
0f
1c
05
0c
0a
fb
f9
f2
05
fd
fc
e7
dc
f9
ee
06
0f
0d
28
21
2c
17
15
19
1d
03
14
01
04
0a
02
fe
ff
ed
dd
ef
fb
0e
f1
e4
f3
de
f0
f2
09
13
1f
19
31
29
2c
1b
13
11
15
03
03
ff
00
ed
e6
f2
fa
f8
02
f6
f1
ef
e5
dc
e6
e3
fb
01
12
1f
21
11
1f
14
0e
00
0d
f3
04
fe
f4
f0
e4
f4
04
ff
f6
ff
f7
e8
df
df
d2
df
e6
f2
ff
fa
00
10
16
0a
05
fe
fb
02
ef
f4
eb
db
e3
f6
1d
00
08
fd
00
eb
d6
e2
eb
e3
ed
e6
fc
f3
02
fa
04
11
09
f1
ed
e7
db
e2
d0
d6
e2
fb
0d
01
0a
09
fc
07
f8
f9
fc
e1
f4
f1
ea
f5
f2
fd
f7
f5
ef
f8
d1
d0
d1
d9
db
d4
e6
06
13
fd
fd
fa
fb
08
06
ec
e5
e2
d5
dd
d6
df
cf
c3
c9
ca
c4
b4
b8
c0
cf
d4
e4
fa
f8
00
fa
ff
03
02
07
03
03
f6
d8
eb
dd
e5
f8
ff
f5
e8
d8
f2
e4
d8
d7
ec
e5
ed
f1
f9
0c
03
01
fd
f8
f6
02
fd
fc
fa
fd
f0
f2
f4
f8
f3
ee
ec
dd
ec
f2
f7
f8
f8
f8
f4
fd
fc
00
ff
08
06
f6
09
f9
09
05
03
f7
f8
07
f8
fd
fd
f1
00
0b
03
fd
fb
fe
08
0a
07
f6
00
00
fa
00
f9
00
f6
00
f6
f5
f7
f6
f2
fd
f5
f7
e9
e7
ed
05
00
00
f8
df
f1
ef
f0
f1
f3
fd
ff
f9
05
0b
07
00
ff
f4
f4
f2
eb
f0
f5
e3
ef
f4
01
01
fd
06
f1
07
f2
f2
e1
e8
ec
00
02
05
08
fe
fe
14
f1
e7
03
fc
f7
ef
ee
ea
dd
ee
f2
e6
fb
f8
e7
f1
ea
ec
eb
0e
ff
f3
fc
fb
f9
06
f8
0e
e8
e9
eb
fe
ee
f0
f2
f4
00
11
06
1b
19
12
02
08
ff
02
05
fa
10
27
23
07
fc
0a
fc
fc
f4
e0
e3
f0
eb
e7
f5
00
0b
0b
16
04
0e
09
0f
00
14
1b
1c
10
00
16
22
03
08
06
ed
f6
cb
f1
de
e6
e7
e4
fe
fe
f6
07
ff
07
05
03
02
08
0e
10
fd
16
11
2a
37
23
fe
f7
f2
fa
dd
dd
ea
dd
fa
00
fc
03
fa
f7
05
f0
00
f5
ef
f7
f9
0a
0d
07
13
2d
2a
18
0c
e9
ea
ec
f0
ec
ee
eb
ef
f2
f8
fc
fe
ff
03
fc
f8
fb
f0
02
0b
f7
11
00
0e
25
42
35
16
fb
e7
e0
d6
df
fb
fc
01
0b
06
09
18
19
0b
fe
e8
e5
e4
ff
03
f6
07
02
1b
29
41
3b
07
eb
f0
db
d1
ee
fa
fa
0e
09
0a
20
21
15
06
fc
f0
e7
e7
fa
f6
f0
01
04
10
1e
32
2b
09
e4
f6
d5
d8
f2
02
10
04
19
1e
15
19
0d
03
15
00
ff
f0
fd
01
fa
f9
ef
0d
0f
33
2c
05
fa
ed
d2
e9
05
06
0b
12
15
09
11
12
09
20
12
05
00
f8
ed
07
fe
fc
ea
f0
f6
13
18
fd
16
00
e4
f6
f6
f9
fc
fa
14
07
02
06
14
1f
19
0f
07
f1
00
00
01
f3
f7
e7
da
04
22
20
0a
f9
ef
02
fc
f0
ef
ed
fc
fa
04
0b
0a
25
1c
14
04
fb
eb
e1
de
df
e3
d8
eb
07
24
0b
07
f7
f6
0f
ff
eb
00
e8
f1
03
f7
08
0c
21
2b
0e
00
ed
ed
dc
d7
d2
d3
e7
f2
16
28
27
f4
f5
f1
15
f6
f4
ed
eb
f2
01
fe
fc
0d
29
2a
17
12
ee
db
d8
df
dc
e3
e4
07
23
36
19
06
eb
f9
f7
f3
f6
ff
ec
04
04
fd
0e
0d
1c
1f
13
0a
ec
e1
e2
de
f0
e6
ef
0f
1c
17
17
fd
f5
e6
fd
01
08
03
0d
07
06
10
09
19
22
0f
09
f3
f8
f3
ee
f3
f0
ff
12
1a
21
0b
17
16
ea
fa
f2
ed
03
03
13
14
13
07
f7
fa
17
00
03
07
02
fb
fd
07
02
0f
14
1e
2f
2a
12
f6
f9
ed
ec
fd
00
0a
0b
15
04
f9
ef
f8
f4
fe
fb
11
05
14
0f
0f
1c
27
1f
24
1e
16
12
10
fe
f3
fd
10
07
0f
15
0a
0a
02
f4
f1
f8
02
0b
00
1b
08
07
1b
25
27
22
1a
2d
fe
ff
08
f9
f6
0a
1a
0d
13
12
0e
0b
f6
00
f3
06
02
fb
0b
0e
12
21
14
1a
14
1d
2b
23
f4
01
0a
00
ff
f3
00
f4
f5
f8
00
07
02
fc
0b
0a
0b
06
1e
0e
15
26
30
31
37
31
24
1a
fb
0a
fc
08
02
e8
ca
d2
d1
e2
f1
01
04
fa
ff
ff
03
03
14
09
20
23
25
1d
31
24
1b
13
01
09
f8
04
0f
03
e9
d6
e0
e3
e1
e0
ed
f5
f8
01
17
19
0d
24
0f
fb
ff
01
07
19
15
11
05
00
fb
fb
09
02
0f
f2
ec
fb
fc
f3
f3
f1
fa
ec
f7
00
f3
0a
ec
db
ef
01
f8
02
f3
ed
fe
fa
07
fd
fd
f6
ec
fa
04
f2
f9
ef
fc
0d
ff
f3
ff
f6
f9
f1
e8
e9
ff
f4
f2
eb
03
f8
f7
fe
01
0a
05
00
ff
03
06
06
ff
ff
02
07
0c
fb
0b
fc
08
fc
f7
09
fb
ff
fd
00
f7
08
07
fe
09
fc
00
05
fc
fc
09
0f
09
09
0d
09
1b
0a
fa
16
1a
16
fd
0a
08
08
0b
01
00
f7
f8
f8
fd
06
00
18
08
02
09
10
0b
17
28
13
24
21
22
1e
0b
f9
fd
f7
10
13
12
12
16
17
0a
01
f9
02
1b
18
01
0f
22
1a
26
36
1f
3a
34
28
29
1e
1b
16
07
05
00
f7
eb
f5
08
fb
08
f9
f8
08
0d
04
00
16
15
27
2c
20
29
14
0f
13
1c
10
08
0c
0d
07
fd
f6
f1
e0
e1
e1
e7
04
fd
fc
08
0c
09
fa
f7
fc
fd
06
13
0a
04
04
08
0d
0f
07
0d
06
f7
02
01
fd
f3
e1
f3
04
fb
11
0e
07
12
f6
f8
e9
f7
ee
fb
fe
00
04
0c
0b
0b
0b
1b
03
02
fe
02
fd
dd
e5
e5
09
f4
00
fa
fa
0d
11
fe
f0
f4
fb
f4
f2
f8
f5
f9
0c
0f
0b
10
12
01
04
ff
ef
d2
d4
ed
fe
13
00
00
17
15
ff
f5
f4
e8
fa
ee
db
e1
de
fd
1b
24
16
0e
0e
14
05
00
e0
be
d0
e2
f3
fb
ee
0d
14
ff
01
f8
f3
e2
e7
e5
da
c3
d0
f3
20
32
1e
0f
0d
04
f6
00
f2
c4
c6
d3
ee
fc
ee
04
07
00
f9
ea
db
e2
da
d3
c7
c3
d5
f4
0f
12
0d
14
13
07
0c
fe
f0
cd
cf
ea
ed
08
fc
00
00
f6
f2
d8
e9
e3
e8
e0
ec
f0
e3
fd
01
07
05
04
17
11
14
05
fd
de
d8
eb
f6
f8
01
ee
ee
e2
e4
ec
e5
03
f8
f3
06
fd
ed
f1
f7
e6
ed
f7
0a
00
06
15
16
04
f5
f7
f4
10
f6
ea
fb
f8
ee
00
f9
12
0d
00
01
03
ff
04
f2
df
f0
f8
01
07
0f
0d
18
0b
ef
02
07
08
03
da
ef
01
11
19
24
11
06
05
06
fd
01
02
e5
e9
f5
fd
f1
0b
16
22
0a
0e
ef
2a
10
01
00
e9
ff
12
32
1f
12
05
fd
02
f5
04
03
ed
f2
f6
f5
fa
fb
0d
13
02
04
10
fb
18
1d
03
0d
19
0a
20
1e
10
13
0a
0d
01
02
07
f8
ec
ed
00
01
04
04
fa
03
09
03
00
ff
17
1c
f6
00
16
1f
1d
16
f9
00
12
fb
0b
00
03
0c
02
00
01
17
11
05
f6
f1
f6
e3
f9
10
0b
1c
f2
0d
09
11
08
0e
f8
02
fe
05
0b
fd
fe
05
01
0e
0e
12
10
11
00
03
02
ed
f3
36
1b
1d
06
14
fb
1b
0c
04
0b
09
0c
07
19
1b
1e
10
0a
17
20
25
1f
0f
f3
00
fb
ed
05
26
2b
0b
00
0c
fe
17
1b
09
0e
05
02
12
0a
12
17
1a
10
14
1e
10
10
0d
ff
eb
f1
ec
04
18
0a
10
07
18
31
2e
18
fd
02
01
09
05
02
0d
fe
fd
04
fe
13
02
12
07
f0
f7
ed
00
04
15
1b
05
07
19
2d
28
0b
ff
fe
ff
0c
12
01
fd
00
f4
f1
07
00
08
03
fc
04
00
00
fe
03
0b
fa
07
f8
ff
1d
0e
02
0d
02
06
07
fb
06
0c
f9
fc
f3
ff
e6
fb
fc
f2
fd
fa
fe
04
0b
06
12
f8
ff
f8
fe
10
13
04
08
0b
f9
f3
02
fc
ee
ee
f0
e6
e8
f9
01
fe
07
05
13
0c
0a
09
0e
f7
01
00
07
f1
07
11
08
f9
ff
02
fa
fe
fa
f6
fd
eb
ee
ec
0e
17
11
0a
0c
05
0d
01
fd
03
06
fb
03
0c
19
12
07
0f
04
02
f5
eb
00
ef
f6
f8
f4
00
00
10
1c
05
01
08
07
f0
02
fe
ff
f7
04
01
05
fb
04
0e
04
07
0a
f7
02
01
f8
ff
f3
fc
f7
00
07
f4
ef
f7
f6
f8
f7
05
fd
fa
0a
f5
fd
fa
07
08
02
01
f7
0a
01
fd
0f
0e
0a
0a
f6
05
fe
f8
04
03
00
07
04
fa
fd
f9
fd
00
f7
04
00
fe
05
03
06
fb
fc
02
f6
0e
05
02
02
f3
ee
fd
02
0e
06
00
fe
02
09
f7
05
08
fd
fd
fb
02
02
02
fa
ff
08
04
f6
fc
ed
f2
e0
e2
f0
f7
f3
07
0c
05
fc
00
06
00
fe
ec
e3
f5
ec
f2
de
f5
f3
08
03
09
00
05
12
02
f5
ee
df
e5
dd
e9
f3
f9
ff
05
f6
09
02
08
ff
f7
05
10
f2
fa
fc
05
09
0f
11
18
11
13
12
12
fb
f2
e5
e7
d5
e4
fb
00
00
0a
07
12
16
18
18
0c
12
06
0b
04
06
14
0e
13
14
11
1d
13
ff
07
fa
ed
d6
de
f2
f7
0b
07
02
18
27
16
16
15
11
0d
09
00
02
06
05
0d
16
0c
12
02
08
06
04
e2
e5
d1
e8
f9
0b
03
15
2b
20
15
1e
1c
19
1b
16
16
12
1a
04
0d
24
23
21
2c
18
13
0f
e1
d5
de
f9
04
13
11
23
22
10
0b
03
1d
1b
21
21
29
27
1d
1d
2a
28
30
20
24
1d
06
0d
f4
d1
d5
f3
00
04
1d
20
07
10
16
07
19
18
1c
20
13
22
09
18
0f
1f
26
2d
28
0d
0d
11
fe
ea
d7
da
00
10
16
0c
06
f6
0d
00
03
0b
05
05
fc
ec
e1
dc
e5
18
26
16
0c
18
05
00
fe
ef
eb
f0
05
0d
0f
00
ef
00
fd
06
ec
f7
fb
f3
f5
c1
a4
9e
c8
f8
16
1d
02
0a
f8
f9
00
f2
f8
f3
f5
10
19
07
e6
e5
d7
f4
f8
f0
ea
e4
d2
b5
8a
a5
c6
f4
04
0c
ee
e4
ed
e7
00
0d
fc
04
f5
09
08
0a
fa
db
dd
dc
ea
ea
f0
d6
c1
a6
b0
c1
d6
eb
f9
f4
de
d2
da
ee
f5
04
fa
f4
fa
03
f4
22
f8
d8
df
e0
f8
f2
e4
d7
ba
bc
d0
da
f0
ee
f8
ed
e7
e0
ee
fa
fa
ff
01
13
01
11
fd
0b
f1
e3
eb
fa
00
f2
f5
e6
d5
d6
de
d6
ed
fb
fc
e9
d7
e5
ff
f9
f4
0a
06
08
07
fa
f9
09
ed
e0
f2
fe
f8
f1
f5
fb
dd
e3
d6
e2
f2
f1
ee
e4
ee
f2
f9
fb
e8
01
fe
21
00
01
0a
ed
dd
eb
f1
f1
ef
fe
f3
fe
ed
de
dd
f1
ea
e2
e0
e5
f8
ea
f2
ee
f5
f7
25
21
05
02
09
ef
ee
f1
f7
e9
fc
03
ff
f4
f8
f0
e4
eb
ea
ed
fb
f0
fe
fa
ee
fb
f5
fa
0e
1b
0a
03
0d
ec
f7
fa
ee
fa
fc
01
fd
fc
fe
f8
04
03
f8
ee
07
f9
fe
08
03
0e
06
02
23
14
0d
fb
0d
f6
0f
09
fb
01
03
08
06
13
13
21
18
0f
14
00
00
00
10
0c
1a
0c
0c
fb
13
07
03
fc
07
05
12
0d
13
ff
fa
0f
11
1e
23
18
23
18
1a
10
1c
10
12
06
0a
0c
12
15
2e
12
0c
00
f9
02
13
06
1e
1d
1c
1c
1a
17
13
16
22
1b
21
18
0e
0c
1a
10
13
1c
10
07
19
0a
0b
fe
01
fb
ff
13
17
1a
1f
19
0d
1e
1d
0f
03
05
09
00
07
13
fe
06
10
0a
02
12
14
05
01
00
fa
f8
f2
23
19
17
05
02
06
05
f3
07
fd
03
03
04
12
ff
fe
e7
f4
ff
fd
12
09
ff
fe
09
03
e2
fc
22
18
06
0a
17
11
fe
0d
10
09
07
07
00
04
02
f5
ec
f0
f9
fd
ed
fb
fc
f8
05
07
f7
fe
03
fc
f3
02
10
12
03
10
10
15
23
1f
1d
1a
17
12
04
ff
ff
11
01
08
f7
01
06
09
00
05
15
22
2c
15
13
09
18
06
0d
13
17
22
23
14
06
17
0a
fa
fb
03
09
03
07
fa
0a
09
01
08
ff
07
08
fc
08
00
07
f6
0a
0d
f9
00
f8
00
04
f6
f7
02
07
09
00
f8
fe
03
0a
f9
fe
00
07
09
0d
11
00
12
0b
fd
0a
0b
f7
ed
f8
f5
1d
0b
04
15
08
0c
06
01
f7
ff
0b
f6
0e
ee
fc
0d
16
22
18
07
0f
1d
0d
17
13
11
09
16
1a
09
1e
0f
1d
1b
00
fb
0a
fa
02
06
ef
f2
0a
0b
21
11
06
1a
1b
0d
17
00
1a
13
12
00
19
24
0e
22
1c
19
1b
f9
02
04
fe
0c
f4
06
18
24
1f
10
16
17
0d
0f
0d
1b
06
12
17
1a
15
0e
0f
17
15
23
20
08
00
00
02
08
05
12
24
0d
0f
23
1b
25
09
07
07
fc
ff
0a
0a
1b
1b
23
17
0b
1a
39
2d
19
0e
22
09
fd
ff
fb
35
2b
18
14
25
0b
ef
ec
e2
d8
d5
e3
e1
ed
ec
f8
00
f1
0c
22
23
1d
1d
0c
02
00
03
03
3c
39
0e
1a
13
f1
e9
d9
dc
d4
dc
cf
c9
e1
e8
dc
ef
ef
f2
fc
15
29
29
09
fa
f0
00
16
21
2a
19
15
f0
ff
e6
e5
e0
d6
c0
cc
d7
e2
e2
e8
f7
f5
fb
f1
fd
2b
28
02
00
f5
fc
fd
23
17
f6
f8
ff
f3
e3
fd
ea
da
ca
d0
e7
e5
f6
fa
f6
00
eb
e7
fa
19
0e
eb
18
fc
fe
ed
08
07
f3
00
05
f9
00
06
00
ef
dd
f4
f6
f2
fb
ff
fb
e2
e8
f3
fd
ed
e3
e3
13
fd
f9
01
f5
02
ff
0d
0b
0a
0a
05
12
10
fc
0f
1b
fe
fa
f4
e9
e6
e7
ec
f7
ef
e8
f3
f6
03
fd
f0
ee
f2
f9
0c
0c
12
17
2e
3e
2a
0d
14
12
fe
02
e9
ee
f7
f4
fd
10
fc
f1
e6
0c
f8
00
f9
e1
fc
0d
15
10
10
14
1f
22
20
09
22
0f
0c
fd
04
fa
01
f4
0d
19
f5
e9
f0
16
f9
00
11
ff
0d
13
0b
12
16
03
0f
0c
11
1f
19
22
07
0c
08
01
0e
0f
ff
0d
04
d8
fb
05
0b
12
1d
14
10
13
03
14
0c
f7
05
13
19
28
23
1f
0f
09
0e
09
10
1d
05
ff
05
f5
f8
03
06
14
15
00
03
00
0c
03
00
e9
fe
00
29
2d
1d
14
0b
12
04
04
24
1e
14
13
0e
e8
ef
04
06
19
10
04
00
10
02
00
f4
f4
f3
01
15
1a
0f
0b
02
02
13
11
13
10
1a
12
e7
e7
e5
f2
10
08
1a
fc
08
00
fe
00
fb
f2
f6
0a
0f
0b
0f
16
13
06
0f
0d
1d
0f
15
01
e5
e7
f8
08
f5
07
24
01
02
09
06
f4
f5
03
f9
04
04
08
0a
07
07
0d
02
06
26
1c
0f
e9
db
e5
ef
03
fe
06
00
f7
e9
ff
09
f8
00
08
06
fc
0e
06
12
04
19
0c
12
19
13
12
fd
dc
d6
f8
fd
f3
08
fe
00
03
dd
e8
01
0b
03
0a
06
18
20
1b
11
19
1b
0f
18
17
16
01
f5
e0
de
f5
f8
04
fd
02
ff
f4
df
e3
dd
eb
fe
0d
07
15
06
04
16
02
15
0c
27
18
16
00
e8
e2
f4
09
fd
fc
00
08
0c
0f
f7
ed
de
e4
fd
f2
f1
00
f7
fd
fb
13
fe
1b
16
1b
08
f8
ea
e3
ff
0b
fb
fb
fc
11
05
fb
f5
f1
e8
fb
f2
ef
00
f0
ec
02
fe
f9
f3
04
f4
f1
0a
f4
f5
fd
00
02
f6
f6
fd
04
02
eb
f5
e0
e2
d0
da
e1
d8
d9
dd
da
e9
da
e7
de
df
e4
e1
fb
06
fc
ff
fe
05
02
f9
f6
02
ed
e8
dd
d3
c6
b4
ca
d8
be
c0
b7
aa
c0
c7
c9
d7
d1
e8
f3
f2
fd
04
00
07
00
f7
09
0a
00
fe
ee
ea
f5
ed
e8
e0
e9
e2
cd
e2
eb
f4
ed
eb
f9
06
18
0c
04
03
0a
00
f8
ff
0b
fb
fd
04
fb
f9
fb
f5
f6
0a
09
00
01
04
05
06
07
07
00
f9
f9
02
f9
08
08
06
00
05
f9
05
04
06
0a
01
09
04
03
01
17
14
12
17
f4
13
1a
1a
1a
0b
0a
ff
02
f6
fb
fd
fc
03
0e
0b
18
0f
11
14
fa
f9
03
ee
ff
0e
11
26
21
1c
13
1d
1c
21
20
11
ed
f9
07
07
0a
f6
16
1e
1e
f2
f3
f5
df
f1
df
d3
cf
e4
fd
01
f7
0d
0c
17
ff
1b
1c
21
0e
f6
0e
f7
fb
00
0a
05
f8
e0
e2
d6
cb
d3
c2
c6
d0
e9
fd
ff
13
0b
0c
04
fc
0d
08
25
ee
e9
f6
eb
0a
fa
fb
fa
ef
e4
d8
bf
bc
b6
c6
ca
eb
ed
fe
0a
0c
0b
1a
06
09
04
03
1c
01
ef
04
fd
08
ed
f7
f2
e2
d5
cd
c3
c2
b6
d0
f0
f7
0c
1c
04
0c
00
03
05
10
09
08
16
12
03
09
fc
f5
fb
eb
f9
e9
d6
d0
bf
bc
ce
e3
f5
06
11
2c
24
17
15
f8
03
06
14
09
0d
11
12
05
fa
09
f8
f1
f7
e9
d1
d5
b8
cd
db
ec
fb
22
20
1d
1a
f3
ec
dd
e6
fe
02
09
f9
13
18
f3
05
fa
ee
ee
d5
e0
ce
c5
c0
da
eb
f2
0f
1f
1f
1a
ff
e5
c0
c1
c8
d7
dd
ef
fc
fe
03
f7
08
fa
f1
e2
e3
c4
c5
bb
c2
e7
fd
15
1f
23
2c
22
05
d5
c1
bc
c1
b9
ca
de
e0
e3
06
f1
fd
eb
f7
e9
db
c7
c2
b9
e2
e9
07
17
20
20
19
13
fd
e2
d7
cc
d5
d2
e0
d7
ce
d6
dc
fa
00
f6
fa
f9
ea
d8
d4
d7
e7
fe
15
1d
2d
25
27
17
fb
ef
f8
e7
de
e6
e2
d7
e7
d6
d1
de
e7
02
f8
00
ea
df
e0
e9
eb
08
16
10
12
1c
12
16
06
01
fb
f3
03
f4
e6
e8
db
df
d9
cc
ee
0c
08
00
ed
e2
db
ed
eb
13
20
1b
14
04
ff
11
0b
fe
08
fb
02
06
f2
eb
e7
dc
e0
e8
fd
01
fe
f9
f5
e9
e9
f0
f6
0f
10
1e
06
fd
06
00
fd
01
0c
01
00
f6
fe
e1
ee
e6
d6
e4
ed
f9
fd
f5
f1
f4
f7
e0
ef
0b
03
13
04
ee
04
0b
13
08
f9
fb
fe
fa
f8
f2
ee
e2
de
de
d9
01
fe
f1
f9
05
00
fb
fa
fc
fc
02
ed
e8
04
24
11
ff
f7
00
f2
03
f0
e3
eb
e0
d6
e7
e7
f5
fe
e7
05
06
0d
fa
fe
f2
ff
e5
d4
ed
0e
27
10
00
08
fa
f6
01
f4
df
de
d9
e9
f2
00
08
ee
f0
fb
04
03
04
ef
f8
e8
de
e5
fa
0b
20
11
11
04
f9
00
00
f7
e5
ed
ec
df
f2
fe
09
f4
fe
e5
01
0c
00
e2
f3
e1
e4
fd
0e
0d
25
0a
12
05
00
0b
f9
f4
e5
f3
e7
ff
0d
00
fd
f3
f4
ee
01
ff
fd
f1
e7
de
f6
f5
08
09
0c
13
05
0a
09
f6
04
f7
e6
ef
ef
f2
02
0d
fd
0b
e9
ff
f6
f7
de
ec
ee
df
ea
ef
fc
17
1d
1e
12
18
0a
03
09
fd
f0
03
ee
fc
13
0d
fa
02
f2
03
00
05
ed
e7
f0
ea
f0
fd
0b
00
05
0b
12
1e
0b
fc
fd
f1
e7
f5
f2
f9
ff
f8
f8
f5
f8
f8
e9
05
01
f4
ea
e7
fc
ee
f4
fb
f8
f6
02
08
ff
f6
f5
f4
fb
0e
01
00
00
f6
06
fa
f9
f3
01
ff
fd
f3
ee
f6
f8
f6
e8
f3
f9
f3
f2
05
00
fc
07
0e
1b
05
0b
02
00
f8
05
08
01
01
04
11
11
04
ff
0d
0f
04
0d
f9
08
0f
12
18
02
f5
fa
01
fb
02
0a
fa
08
f8
fa
fb
03
f6
ff
f9
01
06
f3
f3
10
0d
00
ff
02
0d
0d
04
ef
f9
02
ee
fb
05
fd
fb
00
fe
fb
ff
01
01
fb
ff
fb
00
fa
00
fb
09
09
06
f6
f2
f6
06
fb
fb
ff
fb
02
fe
0a
0a
04
f7
fb
09
08
03
08
01
08
1d
0b
00
1c
16
0f
1b
0b
06
fb
11
11
19
12
16
0c
07
00
05
02
05
f9
fb
13
00
0f
10
13
2a
15
12
19
20
19
14
22
0d
0b
09
10
0a
1e
14
25
18
f8
fb
00
f7
f9
09
f2
03
17
ff
13
12
02
04
fe
0d
fa
f2
06
fb
fc
ff
fc
0a
f6
01
19
10
12
fa
0a
fd
08
08
f7
fe
28
18
0a
13
0d
06
0a
ec
f0
01
06
fa
01
fa
00
fc
13
10
0d
00
e9
ea
03
0b
fe
f8
0d
fb
0c
f7
16
0e
07
fd
fe
e7
ef
ff
fe
00
f3
f4
04
0c
f4
f9
fc
0e
09
f7
0a
11
08
08
ed
ed
0e
0f
07
18
04
f9
fb
ef
f5
e1
ec
ea
df
e0
e6
eb
fc
07
0b
0d
f2
f2
f4
09
08
f4
fa
f0
17
13
fe
06
07
f8
f4
f3
e9
eb
e5
e5
db
f1
e8
e2
f7
00
02
17
fe
fc
00
09
0f
df
f4
0d
1d
16
0b
04
06
ff
01
f6
01
ec
df
ef
ed
f4
fb
fe
f9
fa
f1
ee
ed
f6
0c
04
fd
fe
eb
f4
08
fa
f4
18
03
04
fd
fb
f5
f3
f2
f4
01
02
09
fe
f5
f5
eb
f3
e0
d0
dd
ea
f9
fc
e1
dc
0a
f3
f8
0d
0b
08
07
ff
ff
0a
fe
f0
00
fe
fb
08
eb
ee
f0
f1
dd
bf
ce
fb
fd
0a
fa
ed
f2
e6
01
12
07
0c
13
15
16
15
04
f6
04
fa
f9
ef
fc
00
03
07
e9
b6
cd
f0
f6
fc
f5
ec
da
f0
03
0f
05
10
14
16
1f
26
ff
0e
10
fe
f7
f6
fd
21
1d
31
1f
d3
c7
f2
0b
07
f8
f4
e2
fd
17
fa
0e
11
0e
0b
12
01
fe
1f
17
06
06
01
06
1f
27
32
14
e4
ca
01
f5
f9
f4
e9
d1
fd
03
f8
fc
01
02
11
11
10
0f
1a
0d
03
fd
02
03
0d
03
13
03
e8
de
fe
f3
fc
19
e8
d6
df
f3
01
09
08
04
05
10
10
28
11
03
f6
fa
01
09
fc
00
f2
f4
fa
e6
f1
f2
0b
02
e1
d3
d1
e2
f8
19
07
16
07
0a
0e
28
16
fd
f7
fa
01
fe
f2
f0
ea
e2
f6
d9
e5
f9
02
fc
dd
d6
cc
cd
f4
10
19
1d
14
1a
18
12
06
f9
01
fc
0a
f4
f2
f9
ea
e1
e4
d3
e7
e5
ee
ff
dd
d2
d0
cb
e7
03
0b
18
13
18
12
0b
ff
00
07
03
01
f3
e8
e8
ee
d4
ed
f9
fa
10
ff
01
e8
dd
de
d3
e1
f4
07
23
20
20
10
0d
fe
fd
0b
ff
04
04
f5
e8
e0
dd
dc
ea
fd
fd
0a
fa
dc
df
dd
d5
e7
f0
07
0f
15
1e
13
19
06
fc
f9
01
f7
f4
f1
d7
cf
d6
d2
f1
fb
08
fb
f2
ef
db
dc
dd
de
f5
f1
0c
13
1a
18
12
12
fd
0b
0a
06
f6
ea
e4
e7
df
eb
09
fd
0f
0e
ee
f0
dd
e7
e5
f0
e9
e1
f1
05
02
09
1c
1c
ff
0f
09
f6
f7
f3
e9
dc
e5
f3
0c
04
03
f7
f6
eb
d8
ed
ef
ec
f8
f5
f1
fc
07
0f
1f
16
12
12
0a
05
fd
fc
e7
df
ec
f8
f9
08
02
02
09
e4
d5
e0
ec
cf
e4
f1
eb
f6
fe
f8
fa
04
14
f1
f9
09
f0
f1
ec
e6
e5
00
01
07
f7
f8
fb
ff
e6
d2
d6
dd
c3
c5
da
d8
d8
db
dc
e1
d3
e7
e2
e6
e4
ed
eb
f7
f0
fb
fc
08
fb
0a
fd
f9
ef
d4
e7
d1
c2
ae
a2
c6
bf
a7
a2
ae
a1
c2
d3
bf
d4
db
f5
f1
0e
09
f6
fa
06
00
01
07
0b
10
fc
00
f0
f5
e9
e7
e5
ec
c8
e0
f1
df
ec
f0
05
00
00
fa
ff
01
fa
fe
01
ff
f6
f5
09
08
05
00
fa
fa
01
06
fb
06
06
01
fe
00
09
f9
ff
fd
09
fd
fc
08
fe
fa
03
04
07
07
fe
01
12
18
1e
15
20
21
1f
2b
09
25
07
0f
1e
26
1f
17
0f
02
08
ff
05
fb
ff
02
05
18
22
09
1a
28
26
2b
22
2d
19
0c
fa
03
05
f4
0c
04
16
1c
21
2d
0f
1d
fe
00
07
fd
07
1d
09
fa
fa
0e
02
09
fb
ff
f9
15
f9
f8
fa
f9
e7
e7
f4
f4
0b
0f
12
00
f0
f7
fb
06
12
fc
f9
e4
07
fe
fd
f4
f0
e9
e8
fc
ed
f4
f8
03
fa
f2
f5
f8
f8
00
de
d3
e6
f7
00
fa
16
ff
f8
ea
f6
08
08
07
00
00
06
14
05
0a
09
09
ff
f2
f2
ee
ed
dc
dd
cd
d0
e7
fd
f9
05
fe
00
0b
13
0c
06
fe
ff
0b
01
03
0a
07
10
13
12
ff
08
07
f7
d7
c6
c3
d4
e0
06
00
13
21
fe
fd
04
00
fe
02
02
11
13
0b
0f
14
25
2a
1c
05
10
04
fa
eb
e0
c9
c9
f0
0c
14
16
06
fb
fd
0b
fd
0f
09
13
06
05
08
01
18
0f
0e
0e
08
16
0a
01
02
e1
bf
bf
fb
02
0e
02
15
05
0a
01
0e
07
09
01
fb
f8
04
0c
0b
1a
1a
12
1e
10
11
04
06
fc
bf
d4
fe
16
09
0a
00
fa
12
11
08
15
ff
f9
00
fc
fb
08
0c
0c
1e
16
22
17
1a
16
1b
ff
d0
da
ff
15
11
0f
00
0c
03
0f
10
15
00
02
f2
e8
ed
e1
d4
e4
fa
0e
15
2c
25
25
2b
0c
d5
d1
e8
09
09
13
10
0b
0d
26
09
18
06
fe
fe
de
df
cd
c4
ea
f8
0d
09
15
2a
2b
37
21
dd
dd
fd
00
03
1a
14
1f
18
19
22
11
06
06
fc
df
da
d3
dd
e9
e9
02
11
05
1f
2b
2e
31
ee
e2
fa
fb
fd
1f
ef
09
18
18
14
0a
10
0b
f4
ea
e4
da
e5
e6
f5
07
0e
0b
0c
14
24
2f
08
f5
0b
f7
f8
e4
ef
f7
0d
0c
13
10
08
12
f6
d6
cb
d7
fc
f3
00
17
12
0a
1a
09
18
1d
fd
ea
f1
03
fc
f3
d0
03
1b
0c
22
22
17
ff
ed
d5
bd
df
f7
01
07
0c
00
0d
13
0e
06
f4
06
03
f9
fd
f6
dc
d2
f7
00
02
10
12
21
13
f6
db
e5
ea
01
05
0d
00
f9
ff
f7
01
01
07
22
fb
fe
0d
04
e0
c4
e9
f7
f4
0f
18
11
11
01
f5
f6
fd
fc
02
00
ff
08
f8
02
10
00
00
24
01
f9
f6
1c
fa
c7
ee
f0
00
01
0a
05
0e
1b
07
ff
05
ea
ec
01
e9
fc
09
00
fb
f4
f8
0c
1c
00
fc
00
f6
d7
fb
f9
f8
fd
ff
0b
12
0e
20
0c
fd
f0
e5
e6
df
f0
eb
fa
f7
e9
f5
00
09
05
f2
03
ee
e8
f1
0f
f8
fc
00
09
0e
1a
18
14
08
04
fe
ea
e2
ef
e4
e3
ee
ed
00
00
13
fd
f8
01
fd
dc
ea
06
08
0e
18
06
0d
16
1b
0f
07
0b
fc
ef
ee
e7
de
d1
e6
f1
02
06
f4
00
08
f7
db
ce
dc
f6
0f
14
07
fe
0b
0e
16
17
18
0d
fa
e5
cf
ce
d6
df
e6
ea
eb
f2
e2
f7
ff
00
f5
e1
ec
06
f7
00
f9
f2
f9
01
01
06
06
f8
eb
ec
db
e7
e5
ee
e8
fa
f9
ec
fc
07
00
ff
f8
0a
fb
00
02
f6
f4
07
f1
fa
01
f8
0a
03
00
f7
f2
fb
08
12
f6
f2
05
fc
f5
fe
08
02
fc
04
fe
02
09
12
1b
2b
09
16
06
25
2c
26
2c
1e
2b
1e
15
08
13
0a
03
01
fe
f9
07
f6
08
04
0e
14
2a
05
16
12
06
fd
0c
25
1f
20
21
31
2e
1e
0c
11
14
1b
fa
fa
ff
ff
f8
07
f8
08
05
f8
00
08
f8
06
0a
0a
ff
fa
fe
f9
f7
08
07
07
fc
03
fe
00
08
f9
fc
fd
ff
ff
fc
f7
f7
f7
fe
07
fc
05
ed
03
00
00
18
0b
df
e5
ff
02
0a
0b
17
07
05
fc
00
03
04
05
02
0c
13
f7
fa
ff
f9
e3
ee
cc
cd
d0
b6
c0
d9
e2
e0
ff
f9
ea
d9
dd
e7
ee
00
f8
0a
00
f4
03
17
0c
fc
e8
d9
cc
c6
de
ec
d7
ce
eb
f3
08
fc
00
02
11
00
ee
ed
f6
0f
f6
fc
f8
ea
02
f9
0c
fa
f2
ca
d5
c0
e8
d0
ef
f0
ef
d6
e7
db
e4
d6
f5
f6
0a
10
15
fc
f3
01
fe
f1
ff
0e
1f
f8
f6
d1
d5
ec
f8
f5
f5
f9
f1
f0
ef
d3
d9
ef
dd
fd
13
05
0c
11
13
07
fd
06
ee
fb
f3
e8
e1
d1
e8
ed
ec
f8
06
02
fa
ed
f4
f7
02
fc
00
00
11
18
1a
08
fe
f8
00
01
fb
e5
da
e0
dd
cd
e8
e4
e8
f3
fb
00
fd
06
07
11
07
16
0e
12
0b
15
0d
12
0c
03
e3
e9
02
f0
e0
df
d1
d0
d6
d4
f1
fa
12
09
10
1e
16
17
17
1c
1f
1b
25
28
23
09
0b
fb
ea
e1
ec
f5
df
cc
c0
c4
dd
e0
fb
06
11
17
16
0d
1e
13
18
2f
1d
31
28
38
35
0c
0c
fd
ff
ec
e5
f3
d4
bc
cc
d1
db
e2
f4
22
19
22
12
1e
20
17
0d
13
12
1c
28
4f
3a
38
00
ee
01
f0
e2
d8
d0
c6
bf
c3
d5
f3
0d
10
1d
21
11
0a
04
fe
e2
df
fe
fb
23
2a
50
31
05
06
f8
f8
f0
e8
c2
bf
de
db
f4
03
13
2f
3a
1c
10
ff
e2
c7
b0
af
ba
b7
cc
dd
0e
1e
fb
f3
04
e2
e3
e0
d5
c9
eb
ea
fa
1c
22
35
38
2f
1f
05
e9
d6
be
aa
a5
9b
aa
c8
e8
0b
08
14
0f
02
fb
d4
e9
df
d0
f2
15
25
2a
39
25
18
14
07
00
e5
bc
c5
b8
a7
cc
d5
e8
de
06
12
00
00
da
ea
f8
ee
d0
d9
07
12
28
34
1f
16
0d
11
10
fd
d4
c6
b5
b3
c5
cb
f1
e3
e8
f1
16
01
f4
f7
fd
ec
d1
d3
d0
f6
0a
11
1f
0a
0b
1e
2e
17
e9
d8
b2
b7
d5
e8
d5
ea
08
f6
16
f0
06
09
17
1f
f7
c7
c6
e1
dd
f7
07
0d
22
31
3b
22
d5
c4
a0
c6
d7
d6
ec
f8
05
f0
01
00
e5
05
24
24
14
ff
e0
dc
fd
00
13
21
2d
35
33
05
c3
93
98
be
ce
e0
f6
03
f6
0a
f4
07
f7
00
0b
2d
0e
15
f8
f1
05
12
11
12
1b
28
0f
01
b9
87
90
b4
c7
dd
f7
0c
f4
08
13
00
fd
f3
03
15
11
06
15
08
01
fc
10
0e
14
1c
00
da
a4
85
9b
bd
e0
e9
f1
1c
00
00
02
00
09
00
05
13
08
09
17
0f
11
0d
0a
17
04
00
e7
c7
92
92
a9
cd
d6
dc
03
07
ff
fe
fd
ff
fb
f2
ed
06
01
18
16
0e
1e
13
0e
fb
f2
f5
d9
b7
a1
9e
c3
cf
f0
f0
df
08
f7
01
0a
fb
f9
00
05
03
0b
09
14
23
16
0a
ff
00
fc
e0
cd
b6
b1
c3
de
d8
ee
e2
e4
fa
fd
f8
0a
01
0b
15
1a
0a
0c
0c
0f
13
06
0a
0a
00
fe
ea
ec
e1
df
ef
f7
02
0f
19
02
f3
01
fc
f8
fe
01
06
01
00
f5
f7
ff
05
fb
f6
f2
e2
e9
01
f4
ee
e0
e1
08
fe
12
f1
0a
0a
0a
09
07
f6
0a
0f
09
03
e5
ec
e5
ff
ff
0a
00
04
0d
1c
19
0c
f2
f1
05
0a
f3
fd
f4
fa
fa
fa
f6
03
fb
e7
e8
01
0d
03
ef
fe
02
11
ef
0a
00
03
11
12
09
fd
09
fa
0b
06
07
f6
fe
00
f7
09
07
06
04
f6
00
08
fd
fd
ff
03
f4
06
f9
07
00
f6
f6
f6
02
f6
f6
06
fe
08
00
f9
08
08
fc
fa
04
04
ef
ff
ef
f2
04
eb
eb
ff
fd
ed
f4
f2
e6
de
f0
fa
00
00
03
07
fc
0b
f6
f6
fc
f1
f6
06
ff
f4
f3
ef
ed
d4
e9
d9
e4
ce
cd
ed
f6
ef
f4
e7
e8
de
f6
08
09
06
f6
0f
ee
10
17
11
05
ff
00
d6
e1
e2
c4
bb
b7
b8
c8
d3
e4
fa
f1
ed
d6
d8
f5
fa
09
f9
00
0e
06
10
06
01
f1
f8
e5
e0
fd
f5
fb
e8
d6
d6
d4
d8
ed
ea
eb
ed
f6
fb
ef
fd
f0
04
f7
04
00
1d
0b
00
f2
e8
e3
e5
d5
e3
da
e7
ee
e9
d3
c2
ca
da
dc
ed
06
04
04
f4
f9
f6
e8
03
fb
2a
13
06
ef
f0
ce
d2
d2
cc
de
e8
d4
d4
d3
c2
c6
d5
da
fb
fd
0f
01
0e
14
f6
e4
ed
f6
1a
18
f2
f6
f9
de
d7
e6
d6
d2
e4
ce
e4
df
e8
e6
d9
f8
07
0b
13
0a
11
08
16
f1
fb
07
ff
02
f6
f6
ef
e8
e2
d8
cb
db
f5
f2
f9
13
11
13
17
11
06
19
1f
14
fa
01
f7
ee
f6
fe
ed
e0
e4
f7
f5
e2
e2
dd
ec
0c
0d
2e
37
34
33
28
24
25
0e
14
22
26
10
14
ed
fa
f9
e4
e8
e2
e0
f9
eb
f1
eb
eb
0d
20
2e
3a
37
33
1d
20
1f
26
13
1d
40
37
32
01
00
02
eb
e1
e8
d9
f4
f0
ff
f1
f8
08
18
27
27
35
26
1b
0a
03
ec
03
f6
06
1f
3e
1e
f3
02
f3
ea
e7
da
de
ed
0a
10
f9
07
27
34
2c
26
1d
02
f6
fc
da
cc
cc
d3
de
fa
27
05
f6
13
fb
ed
f7
de
fe
07
10
1d
1e
23
2c
2a
31
19
fa
07
17
fb
d7
c6
bf
bc
d5
eb
0a
f6
f2
00
fd
e7
f9
02
0f
15
1f
1b
25
33
2b
2b
1a
05
fc
1c
29
02
e7
d0
bf
dd
f0
f3
f3
d9
f1
06
07
10
01
07
04
15
06
12
21
1c
16
1d
19
0b
13
1f
21
0a
df
c9
d1
e6
f2
f1
f1
f6
f1
fe
08
ff
e3
ea
12
08
03
08
02
0b
09
13
15
1d
1a
23
1b
01
db
e1
e8
ec
eb
eb
e8
dd
f7
fb
ff
f7
e3
f3
26
17
03
fd
08
09
10
10
18
27
24
1d
09
f9
d3
f8
ec
e8
ec
e0
d7
e7
f8
f7
09
f6
f5
fa
12
1b
0c
02
01
12
19
30
26
2d
1e
12
03
e3
e8
ec
d6
ec
e5
f3
df
ee
0f
0d
ff
fc
0c
ff
06
08
08
09
0c
12
28
29
26
1f
18
0b
e9
f6
df
ce
d9
d9
e8
f3
f8
fa
0d
fa
15
fb
fd
f9
ec
06
ec
06
12
13
0f
13
08
07
03
f3
ee
fc
ef
e2
d3
d7
f3
00
09
fb
0c
11
05
f7
14
04
ed
e2
e7
e8
e9
ee
f4
f0
ec
ef
ed
dc
ea
f7
f1
ee
ed
e2
f9
14
f5
1a
ff
04
07
f6
10
0d
ef
e2
dd
e1
e6
dd
dd
e3
d5
e0
da
ee
00
05
00
ff
fd
f7
fc
1c
02
0a
07
f9
f6
ff
e5
f2
fe
e7
f0
ee
ed
ea
dc
e1
db
dd
ee
f4
fa
0c
11
05
f9
eb
02
1c
0d
15
f9
f8
00
06
f5
f7
f1
dd
e2
d3
e4
e3
e4
d8
e7
ec
f0
f1
08
0e
27
14
13
03
12
0d
13
10
01
f9
fd
f8
ed
0d
fa
d3
d1
d8
dc
e5
e3
e3
f0
d7
f0
f7
f4
ff
ee
fb
11
fb
15
16
03
05
07
05
09
00
02
01
00
f4
ca
cd
ce
ce
e5
eb
ed
e1
e2
ec
e7
da
f0
f9
f5
e3
ea
03
00
fe
09
f5
01
fc
03
ed
dc
e7
f0
f3
e7
ea
00
f7
f0
e5
ea
f3
e1
d5
ef
f1
ee
f7
fe
fd
fd
00
fc
00
00
fd
f9
07
fe
00
f7
08
01
02
02
0e
11
0c
07
fe
f7
05
0a
03
fc
00
f8
fa
f7
09
04
00
00
09
01
00
07
14
08
05
1b
13
26
2e
1c
05
0e
25
18
16
1a
0c
0e
11
0f
04
f9
fb
00
03
f7
05
08
0b
08
06
20
19
33
20
23
19
21
1c
1f
27
18
22
2b
1e
0e
07
1b
16
16
08
00
04
fa
fb
07
0e
01
0a
08
13
24
12
15
1c
1c
16
15
09
15
1b
06
ff
15
1e
26
16
00
09
02
fb
02
ee
e5
e9
e7
f2
fc
fa
00
10
13
03
0d
10
0c
11
14
22
06
07
fb
10
06
00
14
0b
18
fa
f8
00
f3
e9
d7
e6
f5
07
0a
0c
04
02
04
ff
06
00
15
1c
0c
16
0f
1b
ff
00
04
19
0f
f8
fe
fd
eb
e7
f4
ea
fa
02
fa
f6
04
00
07
08
06
f7
00
fd
00
00
ff
02
fe
0c
16
fc
12
fe
02
00
f9
ee
e6
ec
04
00
0a
fd
0e
09
00
07
09
f9
07
0d
04
f9
04
11
12
0a
0e
00
1d
0c
03
0a
f4
ef
f2
f3
07
01
07
1d
10
1e
1e
0a
0c
0f
06
fb
06
06
f8
fd
0f
19
0f
01
02
ff
e9
0c
fa
df
f9
04
0f
0a
10
10
23
12
14
05
04
f9
f5
f0
ed
f7
ed
f0
ff
24
1d
04
f9
03
f3
01
f6
ef
08
14
1e
22
1c
12
15
09
11
07
ed
e5
e8
f9
f6
ef
e7
f6
0a
30
13
26
fd
ec
f9
eb
de
fa
0c
0d
0a
06
06
fd
ef
ec
04
ee
d5
dc
e6
ef
ed
f0
e7
ea
0f
3b
2c
25
00
eb
06
ee
fc
f2
f7
07
09
ed
f4
f0
fd
00
02
e3
d9
df
e0
f3
eb
f1
e6
f1
04
2a
26
11
0c
03
0a
02
fd
de
e7
ee
ef
fa
f1
f2
0c
05
0d
f4
e4
e0
e9
ec
00
f0
e5
ed
00
2c
0f
14
11
01
eb
f0
f6
d8
eb
f6
f0
f7
03
07
17
08
02
05
e9
e5
e2
e8
e5
e3
e3
f9
05
1c
1a
27
16
01
eb
e7
fc
e2
ef
f9
fd
f7
00
12
15
13
1c
0f
f6
ee
e0
ec
f3
e5
f4
ed
0f
32
21
fc
0b
ff
fa
ec
fd
e8
fb
ef
f2
ed
0b
1a
12
02
18
04
f1
f9
e2
e0
ed
f3
f5
02
02
1d
2e
22
19
fc
ea
ea
f1
f3
fc
06
e7
e7
f9
11
10
fd
00
fa
ec
f0
f3
eb
f8
ee
fe
0d
fe
14
2b
17
0d
00
f2
ef
f1
fa
f7
fc
04
f3
f5
12
09
13
fb
04
f4
fb
02
fb
f4
04
00
0c
11
23
2f
09
06
fd
00
ff
eb
0a
00
00
0c
0b
09
1b
1c
1f
20
04
0d
03
17
17
07
05
1a
19
31
26
32
2f
15
08
ff
0d
05
0d
14
09
0a
1b
22
1e
26
36
1b
13
17
1a
1b
12
12
16
1e
25
30
1c
1d
08
00
01
04
02
05
0a
0a
0c
13
17
23
1f
2a
2c
20
2d
18
0d
0c
19
16
24
19
2d
28
21
1c
1a
fc
02
f4
fb
0d
14
0e
05
0d
1b
22
0f
1b
11
1d
18
1b
11
1a
25
17
0e
18
0c
1a
10
10
08
fa
00
fb
00
ff
f8
f9
ec
f2
f7
11
0f
11
12
09
18
15
13
0c
0e
05
04
05
12
20
15
24
05
fa
fd
00
ff
eb
d5
df
de
d1
ed
ef
f6
f8
11
03
0f
10
0f
17
1e
08
fd
f3
0d
14
1c
15
03
04
09
fd
fd
05
f2
e7
e4
d2
c6
e3
ec
f3
08
0b
fa
0e
12
14
00
fb
ee
f7
07
1a
11
0c
0a
fa
f9
05
fa
f4
f9
ee
d9
e2
e6
da
ec
00
04
e8
ed
eb
f6
e9
ef
fb
f9
f4
00
f7
fe
f7
03
03
fe
03
09
01
f4
f0
f8
04
03
03
09
01
02
05
ea
e1
f2
d4
e3
f6
ed
e6
f9
03
ff
f7
0a
fa
0b
fc
08
01
f7
07
01
fe
0b
09
f7
f7
12
10
0e
03
fc
07
05
fc
07
00
f6
f6
fe
03
0a
02
fc
03
06
01
00
0b
12
14
18
02
1b
f9
06
14
f2
fd
03
04
22
1e
0b
0d
04
06
ff
00
01
00
00
07
04
ea
04
0b
1c
25
27
1c
1c
28
15
1a
10
0b
04
0f
00
0e
1a
1d
1e
19
01
05
00
00
00
09
fe
fb
0e
fd
16
11
13
16
16
08
04
12
04
f1
f5
fd
f2
02
fb
0e
0e
11
06
fd
03
f9
02
ff
eb
e1
02
00
12
0b
10
0e
00
f3
04
fd
00
f2
04
08
01
01
07
fe
fc
00
e8
e7
f6
14
03
fb
03
f8
0e
ed
fa
0b
0f
fb
fc
ef
07
00
05
00
01
08
00
01
00
f2
00
0c
01
00
f8
00
fc
fb
ff
f1
04
02
00
fe
f7
fa
f6
f6
fc
fc
f9
00
f4
fe
eb
f2
01
fa
fb
fc
fc
f2
f7
02
fe
f1
06
ee
0b
00
f8
fd
00
e8
f3
f8
f3
f5
f6
f8
ee
f2
ea
fa
ee
08
f4
f1
00
ea
04
ff
04
ef
08
fb
12
fd
01
fb
ef
fe
f4
ed
f2
f0
f7
fa
ff
fe
ea
f7
e9
f5
f5
eb
e9
ea
f3
fa
fe
ed
e8
fe
08
0c
f9
fe
eb
f9
f2
00
f4
ef
ea
f3
f0
00
fc
fe
f6
ec
df
e6
da
c9
de
f4
ef
f9
ea
f4
02
09
0e
02
ff
fb
08
fe
01
f3
d7
e4
df
f4
0b
fa
fa
f9
fc
e6
ca
be
c7
f3
f4
f7
eb
dc
fd
0f
08
06
0e
1b
0a
f6
f0
ea
d8
c4
de
f3
fd
0e
07
15
0a
fa
d6
bb
cd
e5
fc
f7
e4
e1
f9
06
04
08
1f
1e
0f
0c
f1
e8
d7
cd
f9
f6
01
16
09
25
2b
28
1d
eb
d8
e5
f8
f6
e8
e7
ef
07
0c
05
0c
05
1a
0d
f6
f2
dd
fb
08
fe
0c
1b
11
22
27
24
21
fe
f3
f1
f9
fb
ea
f6
f9
02
22
1d
0c
09
16
19
01
00
f8
fe
18
11
0c
12
0e
20
1c
1c
10
0b
ed
fb
e7
f0
f2
f9
f9
ff
1c
10
0d
11
19
14
15
09
08
0b
18
0e
0e
0c
09
1b
01
fc
fb
16
04
1f
03
f4
f0
ea
e6
f7
05
1f
0f
18
1c
26
1e
10
0d
10
22
17
12
0c
13
0b
07
fb
00
2f
1b
0f
fe
fb
f9
d8
e4
ea
fd
05
12
19
1b
28
0e
09
18
17
16
19
17
09
0b
1a
0e
fe
fc
34
09
f7
f2
fe
f0
dc
e1
e3
ec
10
03
19
0e
1e
1b
1e
0c
0a
1b
0e
00
f7
fd
08
f9
00
01
1f
f8
00
ff
eb
fe
ed
e4
e7
f1
f4
01
0c
0e
17
1a
0b
0a
0f
13
04
00
fe
ff
f8
02
f8
f2
0d
1e
f4
07
08
fe
f7
f6
eb
e8
f5
fd
f9
09
19
17
0a
08
14
03
fe
09
07
0a
fa
ed
00
f7
fc
ff
00
f0
07
f7
f8
f8
ee
e9
ee
f2
fb
03
13
0e
13
09
0b
00
fb
fb
00
f9
f7
05
11
08
00
00
00
00
01
02
fb
ff
fb
ec
ec
01
09
12
04
0c
00
f8
fb
f0
f3
ed
fa
01
16
ff
f5
fa
fe
f6
0c
f6
06
f3
e0
de
e1
e9
01
fc
f3
f4
f1
f7
fa
fc
f7
f5
f0
02
13
0c
12
18
0f
f8
00
e4
fe
fc
fb
ef
ce
cb
dc
dd
ee
e2
de
e6
ea
d3
ca
dc
e3
e2
ed
f7
05
0b
02
00
00
17
1d
06
0a
0a
ff
0b
ec
f8
ec
ef
e6
da
d1
e2
d5
d1
cf
e7
e9
d7
d3
e6
e2
f8
f9
e5
f6
ee
0e
10
08
f8
07
ff
08
10
08
ff
ea
e1
d9
e9
e3
e1
e2
e8
e8
d3
cf
de
ec
e3
ed
ed
0a
0d
fb
04
03
04
08
fc
04
ea
e8
f8
fb
f4
f7
eb
ed
ed
e0
ec
e0
e1
e1
e1
f2
01
f1
f7
f1
04
07
06
ff
ff
09
02
fe
fd
05
fd
f5
09
f8
09
fa
f7
03
f9
fb
04
06
fb
00
fe
09
f7
fa
03
fd
00
f6
02
06
fb
f5
f7
e7
f1
e1
df
ed
e6
c5
e4
ec
f9
e0
c2
c5
d5
e7
e9
f2
ed
fa
fa
fc
f8
02
05
fc
fd
f2
f4
dd
d6
d8
cb
b8
cc
99
b9
e0
f5
d1
c5
e9
f7
ec
ea
fe
f5
e5
fc
f9
f7
f8
f5
fb
00
f6
e8
ed
d4
e2
e1
ca
c3
d1
a9
a4
a8
c4
cc
e5
fe
0b
12
20
0f
0a
15
fe
f6
00
00
02
0f
0b
00
0b
02
0e
ec
d4
d9
f0
dd
db
de
cc
d7
ee
04
18
2c
34
29
19
1a
0c
f4
f0
02
02
fe
0b
11
0d
0b
0b
fc
e9
eb
f7
f0
e3
e0
d7
cc
c6
ef
1d
38
38
3d
4a
21
0a
dc
ee
fc
0e
0a
0f
1a
07
12
15
19
0c
fd
00
11
03
ee
d5
bd
ad
d8
0c
3c
3e
3d
50
23
05
0e
f6
ff
0d
de
21
10
fe
fb
00
10
0c
07
22
31
23
0e
de
9b
9a
cf
14
32
4b
48
3b
2c
0e
22
f7
f6
10
c1
31
2b
17
09
06
0b
0d
12
36
36
46
0a
bd
8a
9f
00
24
4d
51
4e
2a
24
1d
2b
f5
f6
f2
dc
28
0f
0a
06
03
0f
16
1f
2c
2f
1c
d7
92
80
bc
16
41
4c
4b
54
25
fa
06
10
09
fb
02
f7
03
03
fe
fd
01
0d
16
1a
19
0e
fd
99
80
80
f3
3f
53
3e
39
38
19
f2
e6
ed
23
f3
ff
00
f7
fd
fc
00
07
05
09
06
f7
f6
cd
8b
98
b3
15
36
41
22
1b
14
e7
d3
d7
f5
0b
ef
09
f3
f4
ee
f9
fe
fb
f8
e1
f7
f8
fc
d6
c4
c8
ec
28
2e
21
27
19
10
d1
dd
eb
f1
00
ff
10
03
00
f9
04
fd
f5
f7
ef
eb
06
fc
f4
f0
f3
fc
1d
21
1a
11
0a
f8
e1
dc
f8
ec
07
0a
1a
1b
02
03
fe
02
fa
e5
ef
f6
fe
1f
ff
fd
f8
10
25
17
05
03
ed
e4
d3
e6
11
fa
00
ff
17
28
1c
09
0a
ef
07
ee
f7
ff
15
16
01
06
03
15
11
07
06
f3
df
f5
ef
e8
e0
fb
10
04
0e
10
ff
fa
f8
00
05
f8
fe
f8
00
0a
10
08
07
0f
0d
01
01
fe
f7
f7
f7
f2
d8
f1
05
05
10
f9
10
12
fa
f6
0a
ff
f8
e8
00
0a
17
03
07
fb
f6
f8
ff
ee
fb
fa
f3
ea
ed
f8
0c
fb
04
06
06
06
0b
fa
f9
00
f6
e8
08
15
0f
13
0d
ff
df
fb
f6
f7
02
f7
eb
fd
e9
04
08
fe
ee
03
04
04
10
0a
18
11
00
fc
16
11
10
0c
04
f7
ee
f5
fc
f1
02
04
0b
f6
ec
ef
02
02
09
08
06
02
0f
1a
0b
19
13
0d
11
19
04
01
fa
fe
f2
fb
00
0d
10
07
05
f8
d8
f5
f1
06
01
13
1a
08
10
1d
22
2d
21
0f
1b
05
11
0c
f1
f5
f1
00
fd
1d
25
ff
0e
01
db
e1
05
03
08
2b
07
25
1e
1e
33
2d
1c
11
14
19
12
fd
fb
f3
e3
f0
06
0a
17
03
0d
10
fe
01
f6
0a
f9
37
fe
11
15
1e
30
0f
15
12
12
0c
ff
02
0a
02
f3
fa
05
ea
0e
0b
00
fe
02
0f
05
01
fd
29
18
1c
12
12
10
1d
0d
26
24
11
05
07
0e
02
f3
cb
d2
e9
0a
01
01
fc
0e
01
03
08
08
f1
ea
fa
05
09
13
13
0b
26
2a
12
11
12
17
fe
01
e9
df
d7
d8
cd
f1
e7
f9
00
05
08
fb
fb
f3
ee
ec
ef
f8
f4
ec
f1
d3
ec
e7
e2
e6
dc
e4
d0
cc
da
ff
f1
07
16
10
06
fe
02
00
08
f8
0c
18
f8
0b
e7
eb
d2
e4
e9
f2
fc
f9
e7
f3
ef
f0
ef
15
17
05
00
fb
f9
fb
f8
05
0a
09
f6
ff
02
fc
f6
fc
fe
fe
03
03
01
fb
08
05
0b
fb
fd
fb
fa
fb
05
08
f9
0a
ff
05
fc
fa
0d
0f
0e
13
17
1b
20
14
27
1d
0e
23
0e
20
26
24
1c
1c
0c
11
fb
ff
ff
01
0a
06
06
12
16
09
0f
15
21
12
20
22
2e
1f
1a
28
25
29
2b
24
21
21
1a
1c
f9
f9
fd
03
00
00
ff
0d
1c
13
1a
17
1e
2c
2c
19
13
2f
15
23
1c
1a
24
0e
11
21
2b
33
20
ea
08
0a
fa
f4
eb
ef
f8
f4
0c
fc
0a
11
22
10
1e
1d
20
1e
20
1f
0c
1c
09
03
0e
05
fb
03
0e
06
00
f9
0d
f7
da
de
eb
02
fa
fe
01
0a
0d
fe
0b
04
0f
16
04
16
0c
1a
01
07
13
15
29
24
03
15
f7
dd
d7
df
f3
f9
fa
fa
f5
0a
fc
fa
02
f6
02
f7
04
00
fc
00
0b
10
2f
37
0b
14
fe
02
fa
e3
e2
e2
f9
07
04
f8
0f
fd
f7
f3
01
ef
fc
f4
f3
fd
00
08
07
0a
2e
31
01
13
fe
fd
f4
f6
f1
fc
06
12
fd
05
06
01
11
0b
f4
e9
eb
ef
f7
f9
fe
07
05
0e
24
15
21
09
fd
fa
ed
ea
f9
f9
17
13
11
0e
0c
18
0b
0d
02
f8
f2
ea
ea
fe
f5
fa
00
1a
30
2c
1f
fb
f6
fa
eb
f6
13
1a
19
0d
0b
12
16
13
10
10
13
f5
eb
e8
ed
fb
f9
fc
04
29
1d
15
22
ff
f6
e1
f9
f5
15
1f
23
16
13
0f
fd
fc
18
17
1e
f2
e1
e7
fb
fe
ed
f7
0b
28
24
1f
1a
0c
f0
f1
ed
0d
05
0d
05
10
02
03
f1
fa
0b
1c
18
04
f2
ec
f4
fc
f2
01
08
0e
19
19
13
fe
0a
f0
f8
13
e6
02
fe
f7
eb
00
f6
03
0c
1c
0e
08
f7
f3
fb
fe
fb
02
ff
14
08
04
1a
1e
0c
ee
01
11
ba
df
de
e8
f0
f1
ee
06
11
27
19
0f
f5
db
f1
ec
ea
ec
fc
f1
09
09
0d
0b
00
f4
ed
0a
b4
cd
e7
dc
f2
f2
f6
00
1e
2c
34
0c
f2
da
e8
ee
ef
f5
e8
ea
05
0f
f3
ed
f2
f6
f7
03
c2
d2
df
f2
f9
02
0c
18
1a
25
25
fe
ed
e4
eb
ea
df
fd
ed
0c
05
1d
fd
e7
09
ec
ef
ea
cf
de
f0
fa
fc
02
15
0f
18
12
19
fd
ed
f4
ee
f6
fc
f9
fd
ff
10
16
05
08
02
fe
ec
dc
e2
f0
fb
00
01
02
04
12
23
0b
f9
fa
00
0a
00
f7
fc
04
01
21
21
10
f1
01
09
ed
fd
e8
e0
f8
11
0b
0b
1e
1a
19
1b
16
02
0f
0a
17
0b
0a
10
0e
1b
31
1d
13
f5
09
ff
f8
06
df
e9
00
0d
14
18
17
24
22
20
15
1a
19
0a
15
27
0d
11
11
2d
26
0d
0a
f4
04
0e
f3
f4
f3
fc
07
18
24
1d
24
1a
15
19
1c
1c
17
0f
12
16
1a
19
1b
25
0f
00
15
00
fb
01
09
00
01
0f
10
05
09
08
12
14
10
20
12
15
07
08
1e
0a
19
0e
0b
12
14
0a
09
03
f7
fe
f7
06
f9
00
ec
e8
f8
07
02
f6
08
08
0e
16
1b
11
03
09
17
0e
15
06
1c
fc
0f
fa
f8
0b
03
12
e3
d5
d0
d2
e4
ee
fe
03
10
07
0e
0f
02
10
0b
15
1c
00
fd
eb
f9
09
05
11
03
f6
00
f4
00
da
ce
e0
dd
db
f0
ef
0a
fe
08
04
0c
09
1c
04
0a
fa
ef
ef
01
05
f5
fd
f9
07
00
06
f9
fe
f8
e2
f0
f9
e6
e1
f8
f5
ea
d0
dc
e5
e6
de
d7
ce
dc
de
f4
e8
03
01
00
05
05
f7
f6
f7
f7
f1
f4
01
fe
f6
0a
fd
fa
dd
e3
e1
da
e3
f6
ed
f2
fa
ee
0b
fe
0a
04
fb
01
fc
fb
03
02
f6
f7
03
04
09
fd
fb
f9
ff
0b
f6
f9
00
f9
04
fe
f5
fa
08
0a
f6
01
04
09
f9
07
03
00
fc
00
f3
fe
f6
00
05
f5
0a
13
f7
fb
f8
f3
ef
ef
00
ff
05
06
fb
0a
fb
fe
f9
13
0f
e8
fe
eb
fd
f9
f5
de
f5
08
ff
16
08
00
fb
f4
ee
f2
f1
f6
ee
f9
0a
09
fa
f6
00
0c
eb
ee
e8
f8
f9
f9
00
ed
07
15
15
0b
16
f8
fa
00
0a
fd
f2
ee
ee
06
15
f9
00
03
fc
ea
ed
df
e7
ff
ee
fd
0d
09
0e
1a
21
27
08
00
01
06
01
0c
0a
00
00
ff
fa
08
fa
fa
00
df
e3
fe
f8
f6
fe
f7
00
01
0a
1a
19
27
09
f4
eb
e8
f3
f4
06
15
fe
08
0e
f8
f7
07
fc
ec
f5
02
08
fd
03
fc
f6
0f
f9
0b
0c
09
fe
e2
ef
df
e8
fd
05
0a
09
ff
10
0c
0a
0c
0f
03
fb
00
18
16
0a
08
fc
0d
07
0b
1e
0f
f5
f2
f6
f1
ff
01
06
0e
0a
02
17
08
0d
2a
11
11
f8
03
f6
ff
fe
03
09
13
15
1f
2b
12
fe
f1
f0
f3
0a
0f
01
19
07
12
0a
08
11
38
16
14
07
fb
fe
08
07
05
13
16
1e
44
42
19
ed
dd
f7
fd
09
10
0f
17
1e
16
11
06
1d
1f
20
0c
19
eb
fb
03
0e
07
0e
27
2d
40
32
0b
db
e7
f7
04
0c
0d
0a
f0
08
20
20
07
0e
2d
26
09
05
fd
08
fb
03
12
13
1e
23
11
07
f1
dd
e9
f3
fa
fa
00
f1
f5
00
13
23
04
0f
31
39
ff
ee
f5
06
1c
0d
0f
14
0a
fe
fd
f3
df
e2
e7
f5
e7
ea
e4
f2
ea
fc
15
1d
0b
05
0f
28
f6
dd
04
21
17
1e
1b
0c
fc
e3
e0
ee
df
df
e1
e5
d1
db
e0
f9
f6
03
15
0a
f6
0e
08
2b
ee
f3
1c
20
2b
19
08
eb
c2
d7
e0
fb
f7
e9
e0
e3
d3
e7
fe
ff
23
15
fb
09
fb
12
fc
1e
fe
05
12
20
1e
03
f7
cf
c2
c7
e2
fc
f7
fa
e4
f2
e3
ed
00
0b
2a
11
fb
18
1c
08
f8
fe
f9
0d
0c
fa
fc
f9
ea
d3
d2
cd
dd
08
06
f7
f2
ff
fe
fe
16
09
0b
24
08
24
09
07
fd
15
11
20
01
fc
e9
e3
d4
dc
d6
d6
f1
14
1b
09
06
00
fc
0c
15
02
15
0c
21
1e
fe
09
09
1d
08
0e
04
eb
e6
f1
e5
e1
ce
d8
02
1b
1d
05
09
07
0f
0a
20
0b
09
10
21
27
15
01
18
1a
00
0a
fd
ee
ed
ff
e8
e2
d9
e0
04
22
26
22
03
08
04
07
13
fa
ff
0c
2d
21
01
ff
f4
ff
00
08
f8
05
07
00
00
e6
fc
0a
1a
20
1b
18
1e
12
15
03
f9
03
fa
11
09
0b
04
0d
ff
fa
22
08
0c
12
0f
05
08
08
02
00
0a
18
15
17
00
06
15
0b
fa
fb
fa
03
15
08
fd
fd
07
f4
0e
1b
10
08
fa
0f
23
0c
03
06
08
0b
17
12
07
17
0a
fb
e9
f4
f3
fb
08
06
fc
08
01
f1
00
0f
04
fd
f8
13
20
28
1d
16
00
09
10
03
0d
f9
fb
e9
e6
e4
da
ec
07
19
01
01
04
07
00
ff
02
f8
05
06
1b
15
0c
fb
fb
09
01
eb
13
12
01
f3
fa
ec
f0
ed
07
02
05
09
07
f5
02
00
f9
00
00
0a
12
fa
f2
eb
f2
dc
f0
ed
03
0e
10
fc
0b
13
00
11
01
07
ff
f9
fc
07
f6
08
e6
ec
04
18
0b
fc
09
f6
f4
f9
14
08
01
01
27
07
05
ff
fd
15
11
08
fe
06
ff
fc
f7
0d
1f
1d
0c
12
04
fc
14
03
2c
00
0b
01
22
24
26
0c
f7
08
13
05
03
07
07
fd
ff
09
f8
ff
09
fa
f6
0a
fc
f8
06
f1
f4
0c
0d
07
fc
fd
06
fa
00
0a
06
03
09
0a
ff
fe
04
00
ff
f7
03
f4
fa
fc
fb
ee
ec
ea
f8
09
06
01
f9
e0
ee
f0
f8
00
fd
02
0a
00
f7
00
09
fe
fb
ed
ff
f0
e3
f1
f5
f6
f6
09
07
0a
0a
14
fd
ef
e4
ef
ee
e2
01
10
fb
f8
06
f7
05
15
fa
fd
0b
10
0b
0b
ff
02
04
10
18
12
14
0c
00
f8
fb
ed
dc
d1
e5
fc
08
fd
09
01
12
13
0b
f5
15
13
0f
05
19
12
21
1f
1d
23
23
14
0f
10
10
05
f8
e2
d6
f6
f9
06
fd
fd
f9
07
1d
0b
11
0a
ff
05
0f
04
0a
09
06
07
19
22
0a
0f
0c
0a
04
f5
f4
e9
f9
fa
ec
fa
0a
f2
20
11
f7
00
0a
07
01
0b
0b
01
07
08
03
10
0b
03
01
03
0b
00
f8
ec
0a
f6
f7
f8
0d
f2
13
27
17
06
f7
fd
fe
f9
ea
fc
02
07
fb
f2
00
03
00
00
0c
06
ef
e0
ec
f8
05
fc
f9
fb
10
22
14
09
0b
f9
f0
ed
f6
fe
ff
fb
fd
01
13
09
11
08
04
0e
f5
dd
ea
08
0d
06
05
08
02
23
1c
0e
00
f6
f3
e8
f4
00
fe
0d
11
11
16
1a
0b
14
06
0a
ed
ce
f1
03
fa
fc
fb
07
06
13
14
06
ff
e9
e3
e6
e7
f7
f1
13
12
0e
0b
1d
1b
01
02
fd
f1
d5
ea
f9
07
ed
05
02
01
0e
f6
f4
e8
eb
f1
e7
e5
e6
fb
10
05
07
09
06
14
fd
f2
f4
ee
f6
03
0c
18
f3
fc
ef
f1
f3
dd
c2
df
e5
f1
e6
e8
f1
19
23
0a
06
fa
06
ff
04
ee
e0
f3
0a
10
09
05
04
f6
f3
f5
c6
be
b3
d1
f2
f9
e3
f0
04
2b
2a
11
06
f9
fa
f8
fc
ed
ee
f1
07
18
16
15
fa
f3
f2
f6
cc
bd
db
d9
e8
e4
e1
00
13
24
1f
16
04
00
f8
ef
ea
df
ea
e0
f0
fe
0f
07
f6
f2
17
04
f0
ee
fc
ef
ed
f7
f2
00
16
31
2b
17
fd
e4
ee
e5
df
f2
e9
df
02
04
1d
1f
fb
05
15
1f
10
01
0a
f7
e8
01
fa
f9
09
2d
2c
0a
02
e5
ec
e9
e3
f3
f1
f0
fc
17
21
1d
07
11
08
18
09
0b
ff
08
07
fa
ff
f8
0d
1e
0c
01
f6
ec
e7
f9
e9
f2
f6
ff
01
14
20
0f
00
0c
0c
11
1b
13
06
07
01
ff
00
f9
04
09
01
fa
04
0d
05
ff
ff
05
07
14
20
1c
16
12
0d
fa
ef
0f
10
1e
0b
14
08
01
0e
fa
fd
0b
07
11
1b
11
0e
13
10
06
0e
17
05
21
2d
02
0b
eb
08
18
0f
09
23
24
0b
15
00
fb
fe
fd
fa
10
13
09
13
16
0c
18
11
1b
0b
15
06
04
ff
17
1a
1f
0d
18
18
1b
10
12
ff
ff
ef
fa
01
0c
08
1a
21
21
19
0d
1b
18
19
01
00
05
0b
19
16
29
20
18
2a
1c
0b
10
09
f9
fa
fa
fb
fa
fd
16
12
22
17
15
17
06
00
09
ec
f2
fa
00
23
14
0d
0d
0f
08
09
18
07
0f
0b
07
03
00
09
0e
24
1b
24
10
11
14
fb
06
fe
06
06
f8
0d
f3
f1
ef
f1
fd
fd
0b
f8
f6
01
02
01
f4
0a
0c
0f
13
00
17
07
06
19
07
08
04
fa
09
fc
e9
e6
e9
01
07
fa
fa
f2
02
fb
f4
00
f4
f6
f5
fb
f8
fd
e7
df
da
e7
04
fe
fa
fd
06
fa
f2
e4
e2
e8
f4
ef
f6
e8
e2
e5
da
d5
c9
ee
f4
f7
e8
ed
ea
e2
f7
f9
06
07
00
07
f6
f9
fc
06
fd
09
f5
01
f0
f1
f4
f9
ee
eb
fb
f5
f2
ef
f1
f6
f7
01
02
09
fd
00
00
f7
fc
06
ff
01
0a
0b
02
04
ff
f7
fd
fc
04
fe
f4
03
04
f9
f8
08
00
0a
05
04
08
07
08
04
fa
06
fb
11
10
06
18
11
09
19
18
2b
16
00
0d
06
20
2a
19
1c
17
13
01
ff
03
09
02
04
f9
09
0a
0d
09
10
1b
10
16
0f
21
1f
18
10
29
25
13
1b
25
1a
1d
0a
09
fc
00
08
f8
f8
fa
06
07
05
01
02
0c
07
0b
14
0a
18
1b
17
1b
14
1a
22
1a
11
10
12
0f
08
00
fd
fb
06
fb
f1
f7
f9
e6
f2
f8
f2
f6
fa
06
ff
05
13
10
14
04
11
00
fc
01
fe
04
e3
eb
f2
05
fc
07
fe
e2
dc
c6
d6
f4
ef
fe
09
f8
ff
07
10
14
fe
0d
f9
fc
05
03
f5
f1
f3
de
f3
f1
f8
f0
04
ca
d8
d4
d6
f0
eb
f5
f7
06
1c
27
1b
1a
10
11
01
00
fd
00
f8
dc
fc
f7
fb
fe
0b
f3
fe
cf
bc
cc
e5
ea
fa
f8
15
17
1f
22
30
26
23
0c
09
02
f8
ec
e6
dc
01
f2
ec
06
fe
f8
ed
e5
b8
df
e4
ef
0d
17
16
1c
1b
1c
1d
09
07
00
ea
de
f4
ec
d6
e0
fd
f3
f0
0d
ff
f5
ef
e2
c8
d1
fd
04
15
20
25
1a
14
06
07
f7
e4
e4
ed
f4
f1
e4
e1
e0
0a
ff
f1
03
f8
f6
f9
dc
d4
e9
16
19
21
20
12
10
00
f8
02
df
e1
ea
f7
fb
fd
f9
ea
0b
21
00
07
ef
f6
f0
ef
ed
e8
06
20
1c
25
18
09
f7
eb
0f
ff
e1
da
fb
fc
07
07
13
0c
26
22
fe
05
f5
e9
eb
f5
fa
fb
07
2a
16
17
12
05
ef
ec
fe
f1
f3
ed
04
03
02
0f
11
16
27
17
fa
eb
fc
05
f8
ec
fc
02
0c
1b
0d
07
12
04
f2
f9
f8
f4
ee
ff
f7
f6
01
fa
0c
16
2a
1b
e2
dc
ed
0c
f7
e3
01
06
09
12
04
00
0a
06
05
01
