ffffffe8
0000000a
00000010
fffffff9
00000022
fffffffe
ffffffe9
00000000
fffffff0
0000000c
ffffffec
0000000e
0000003b
00000016
0000000e
00000011
ffffffec
00000009
0000001b
0000003a
00000025
00000002
0000001a
00000015
00000026
ffffffe9
00000012
00000006
fffffffe
0000001f
0000001d
0000001b
ffffffe8
00000007
00000039
0000003d
0000000b
00000002
fffffffd
fffffffa
0000002d
fffffff2
00000000
fffffff8
0000000f
0000000b
00000020
fffffff9
00000001
0000000e
ffffffea
00000015
00000020
00000007
00000027
fffffff5
0000000c
ffffffe4
0000002f
ffffffde
00000028
0000002e
fffffff8
00000008
0000000b
0000002a
00000001
0000000a
0000000c
00000003
ffffffe3
fffffff1
fffffff5
00000001
fffffff9
ffffffe2
ffffffe5
0000000a
fffffff4
ffffffe8
0000000e
fffffffb
00000000
fffffff7
fffffffb
fffffffd
00000013
00000000
ffffffd8
0000001d
fffffffa
00000010
ffffffff
00000014
00000030
0000000e
00000011
0000000d
00000000
0000000b
00000015
ffffffff
00000012
00000014
00000017
ffffffe6
00000010
0000001d
ffffffe9
fffffff5
00000017
0000000a
00000004
00000015
00000024
fffffff8
00000018
00000023
00000009
fffffffd
00000013
0000002b
00000012
ffffffff
fffffff3
0000002e
ffffffea
00000011
