00
fa
c4
e2
ed
10
0b
ea
33
93
ef
00
d7
eb
06
00
41
28
0e
a6
00
08
3e
9e
cb
cf
29
bb
20
38
c0
e6
1a
39
0d
11
0e
09
b0
ed
22
c1
31
13
8e
d9
c1
13
18
bc
2d
28
3c
01
ae
b5
1d
0f
df
eb
d2
d5
35
22
0e
eb
c2
27
1c
e0
27
06
ed
d3
15
da
fb
ec
32
08
f4
17
c2
b5
e8
e8
e6
de
27
fb
f9
f5
d3
0e
1c
25
d4
26
2e
fe
f1
25
f4
13
ca
b3
21
de
04
0c
bc
28
f0
1a
18
24
fe
e2
df
14
0c
cf
d3
dd
dc
06
18
d5
c1
c6
21
18
17
c8
c2
b4
ef
35
c4
17
9f
ee
b5
00
e7
1b
1a
ee
0e
e6
fe
34
e2
28
f4
1e
17
20
f8
4f
0c
fd
c9
1e
ff
d4
31
12
74
2b
0f
df
e5
dc
3b
d3
bd
1a
c2
08
3c
48
24
0e
cd
d7
a9
0b
17
2b
c8
e9
0c
29
15
ca
b9
35
1b
27
e5
e2
ed
16
01
b9
d8
b0
f0
cc
fe
0c
f4
08
1d
32
d0
f1
fd
d0
f5
29
34
07
2d
e4
ce
f9
14
d5
b4
d4
bc
dd
05
1b
ab
d6
06
bf
ed
bf
3e
16
12
7f
ff
16
c3
93
2a
c2
15
02
17
b6
da
21
20
28
28
df
13
e0
32
fb
bf
17
c9
18
0d
cb
2d
e9
a9
02
b0
00
3a
f7
fb
21
d8
19
29
40
fb
a5
e6
f7
80
f9
0d
12
f6
0b
0b
25
e3
09
1f
15
48
02
fc
b6
f4
34
2f
ef
ac
0b
fe
d4
70
2b
11
17
19
f2
cf
89
21
01
e2
b9
0b
17
e1
2a
e8
17
1d
d5
44
eb
23
1e
00
0c
cd
23
a0
2c
08
2a
15
02
fc
df
e6
d3
b9
1a
de
30
da
f7
ed
ec
e7
21
1a
1e
05
d5
f1
03
f4
36
d0
1f
ba
dd
4a
27
25
2c
f4
eb
0c
02
15
fc
16
13
ec
0f
4e
e0
29
eb
17
28
18
25
d8
d8
f1
2d
e2
ed
18
f7
06
f2
06
13
f3
40
fe
ea
2c
00
0c
a2
dd
c9
fa
cd
e4
d6
42
fa
02
19
e9
2f
33
f4
9a
14
fd
00
1d
0a
e2
56
df
35
ec
0f
eb
1f
a6
be
fc
fb
1f
0c
12
16
d7
33
0e
fc
2b
21
fb
18
11
f3
21
f2
d9
13
04
31
d3
1b
d8
1d
19
df
0c
d1
25
91
d2
27
da
db
fc
0f
b2
e4
03
2e
00
26
33
e0
16
f4
42
eb
06
f2
2b
e4
14
80
c9
cd
d5
ea
34
eb
f7
80
35
b2
13
eb
ef
d4
80
f5
ea
05
02
f1
1a
31
fe
aa
f5
25
c3
d3
a8
1c
e3
c5
d9
da
33
dd
f9
00
fe
c9
1c
16
16
de
f2
12
bd
1e
76
d2
15
e9
b7
ae
80
24
1b
1d
15
14
c2
c1
e5
37
1c
dd
20
d9
2b
e0
25
11
13
ff
15
21
eb
01
27
4d
a5
d7
c7
21
0c
dd
01
11
06
fc
14
da
30
d2
2e
00
bc
c2
03
19
e5
28
1b
0d
c4
bd
28
af
01
a7
14
bc
13
ca
0f
b3
f0
bf
bc
f5
22
c8
14
14
b9
c4
2b
25
d3
38
07
bd
b7
16
f4
40
a6
1c
f3
2a
fc
eb
fe
15
00
1a
99
28
0c
e1
66
4e
04
08
94
19
2e
39
27
29
24
2f
30
dd
ed
10
dc
ee
08
26
d4
da
75
7a
0c
d7
80
0e
12
d2
16
28
58
dc
92
10
04
05
dd
27
fd
bb
21
e4
09
f6
16
dc
89
24
fc
1e
09
27
f6
24
fd
8b
ec
cd
1d
10
14
f1
f2
0f
b4
ce
f7
1d
d6
00
cf
82
35
03
ea
ca
ea
18
ec
16
38
14
bd
16
12
fe
08
df
e3
2e
25
2b
22
2c
eb
d7
bd
32
f7
00
38
f0
16
09
00
a4
e6
56
44
18
98
f0
db
1f
b4
a4
a1
eb
8e
27
ff
26
c3
a7
f1
b9
da
2b
df
c2
a1
17
02
80
c9
e5
06
d2
2f
cc
32
ec
0b
e0
2d
42
3f
0f
07
fa
10
34
c1
23
eb
d9
2a
aa
df
23
d2
ea
ef
28
c2
18
00
2f
14
8f
e0
1a
1b
1f
40
32
ff
1b
ff
40
23
03
d9
f8
00
23
f1
cb
08
0b
1a
f5
d8
e0
27
18
ce
f2
16
a2
01
d0
f6
1f
e6
27
a1
f4
15
00
c2
0c
ea
12
3f
03
1b
c8
95
0d
15
22
22
1a
ef
f4
ec
2c
c5
f9
f5
c2
c5
e3
e6
af
b8
f5
c8
d8
cf
23
14
1e
06
f1
52
ce
1c
df
29
92
c9
12
31
d2
0f
19
1f
0b
23
35
2e
b0
c6
c5
ff
39
d1
c4
dd
55
f6
d8
ea
21
cb
d1
bd
e5
0f
cc
32
ec
cc
dd
17
c2
15
c2
08
12
15
32
2e
02
e0
25
1a
be
f2
27
3f
05
22
bf
08
ba
03
c9
0f
04
be
e6
05
fb
12
c3
b9
0f
2d
f2
d4
cb
00
15
03
30
60
14
c3
ec
13
af
0b
0c
37
1c
1a
f5
f3
31
c6
32
34
22
17
0e
c2
4e
24
28
1c
e7
f7
a4
ec
ea
15
41
21
f7
15
f2
1c
cf
20
1b
f8
1d
20
f8
0d
12
9f
21
0a
14
e8
05
16
e2
f9
00
ec
fe
f5
2a
07
ea
15
2a
80
0d
ec
0a
b2
2f
bf
90
16
c6
23
ec
e0
84
ff
fb
f9
2f
a7
15
f7
f2
ce
d5
dd
1f
10
fc
e7
01
98
a9
10
1a
0b
07
ba
1f
df
0f
15
0d
cd
d0
1f
ff
20
ed
2d
20
23
fb
0b
2a
23
1f
ce
f6
f5
19
0f
00
0a
ff
ac
09
17
a2
f7
14
f7
35
99
ee
02
11
2a
c0
c5
e1
a9
f0
1e
17
d8
d5
19
fa
bd
ff
ec
da
bb
24
0b
80
2a
e7
f7
cb
c0
21
1d
c6
08
14
26
e9
27
22
cc
d4
11
f2
04
08
19
c7
df
fd
14
fd
05
e4
1e
1d
26
ed
22
19
05
8a
bc
f9
0a
aa
a6
1f
cc
14
0d
e5
c3
0a
d7
c6
bb
d3
0d
1f
e6
17
18
01
e4
1b
18
d0
be
93
0f
f4
e6
1f
80
8b
de
dc
03
f9
0d
10
a5
e4
2d
1c
10
f0
f1
c5
f3
f8
05
28
df
31
23
d5
23
05
28
16
2e
84
dd
2d
07
d0
20
fa
fa
c7
20
c2
e6
ea
2d
24
1f
1d
1d
11
c0
80
24
20
0b
12
f2
ce
2a
cc
ca
e1
a6
14
25
31
d9
1a
22
ec
37
06
